{
  "version": "1.0",
  "truncation": null,
  "padding": null,
  "added_tokens": [
    {
      "id": 0,
      "content": "<|endoftext|>",
      "single_word": false,
      "lstrip": false,
      "rstrip": false,
      "normalized": false,
      "special": true
    }
  ],
  "normalizer": null,
  "pre_tokenizer": {
    "type": "ByteLevel",
    "add_prefix_space": false,
    "trim_offsets": true,
    "use_regex": true
  },
  "post_processor": null,
  "decoder": {
    "type": "ByteLevel",
    "add_prefix_space": true,
    "trim_offsets": true,
    "use_regex": true
  },
  "model": {
    "type": "BPE",
    "dropout": null,
    "unk_token": null,
    "continuing_subword_prefix": null,
    "end_of_word_suffix": null,
    "fuse_unk": false,
    "byte_fallback": false,
    "ignore_merges": false,
    "vocab": {
      "<|endoftext|>": 0,
      "!": 1,
      "\"": 2,
      "#": 3,
      "$": 4,
      "%": 5,
      "&": 6,
      "'": 7,
      "(": 8,
      ")": 9,
      "*": 10,
      "+": 11,
      ",": 12,
      "-": 13,
      ".": 14,
      "/": 15,
      "0": 16,
      "1": 17,
      "2": 18,
      "3": 19,
      "4": 20,
      "5": 21,
      "6": 22,
      "7": 23,
      "8": 24,
      "9": 25,
      ":": 26,
      ";": 27,
      "<": 28,
      "=": 29,
      ">": 30,
      "?": 31,
      "@": 32,
      "A": 33,
      "B": 34,
      "C": 35,
      "D": 36,
      "E": 37,
      "F": 38,
      "G": 39,
      "H": 40,
      "I": 41,
      "J": 42,
      "K": 43,
      "L": 44,
      "M": 45,
      "N": 46,
      "O": 47,
      "P": 48,
      "Q": 49,
      "R": 50,
      "S": 51,
      "T": 52,
      "U": 53,
      "V": 54,
      "W": 55,
      "X": 56,
      "Y": 57,
      "Z": 58,
      "[": 59,
      "\\": 60,
      "]": 61,
      "^": 62,
      "_": 63,
      "`": 64,
      "a": 65,
      "b": 66,
      "c": 67,
      "d": 68,
      "e": 69,
      "f": 70,
      "g": 71,
      "h": 72,
      "i": 73,
      "j": 74,
      "k": 75,
      "l": 76,
      "m": 77,
      "n": 78,
      "o": 79,
      "p": 80,
      "q": 81,
      "r": 82,
      "s": 83,
      "t": 84,
      "u": 85,
      "v": 86,
      "w": 87,
      "x": 88,
      "y": 89,
      "z": 90,
      "{": 91,
      "|": 92,
      "}": 93,
      "~": 94,
      "¡": 95,
      "¢": 96,
      "£": 97,
      "¤": 98,
      "¥": 99,
      "¦": 100,
      "§": 101,
      "¨": 102,
      "©": 103,
      "ª": 104,
      "«": 105,
      "¬": 106,
      "®": 107,
      "¯": 108,
      "°": 109,
      "±": 110,
      "²": 111,
      "³": 112,
      "´": 113,
      "µ": 114,
      "¶": 115,
      "·": 116,
      "¸": 117,
      "¹": 118,
      "º": 119,
      "»": 120,
      "¼": 121,
      "½": 122,
      "¾": 123,
      "¿": 124,
      "À": 125,
      "Á": 126,
      "Â": 127,
      "Ã": 128,
      "Ä": 129,
      "Å": 130,
      "Æ": 131,
      "Ç": 132,
      "È": 133,
      "É": 134,
      "Ê": 135,
      "Ë": 136,
      "Ì": 137,
      "Í": 138,
      "Î": 139,
      "Ï": 140,
      "Ð": 141,
      "Ñ": 142,
      "Ò": 143,
      "Ó": 144,
      "Ô": 145,
      "Õ": 146,
      "Ö": 147,
      "×": 148,
      "Ø": 149,
      "Ù": 150,
      "Ú": 151,
      "Û": 152,
      "Ü": 153,
      "Ý": 154,
      "Þ": 155,
      "ß": 156,
      "à": 157,
      "á": 158,
      "â": 159,
      "ã": 160,
      "ä": 161,
      "å": 162,
      "æ": 163,
      "ç": 164,
      "è": 165,
      "é": 166,
      "ê": 167,
      "ë": 168,
      "ì": 169,
      "í": 170,
      "î": 171,
      "ï": 172,
      "ð": 173,
      "ñ": 174,
      "ò": 175,
      "ó": 176,
      "ô": 177,
      "õ": 178,
      "ö": 179,
      "÷": 180,
      "ø": 181,
      "ù": 182,
      "ú": 183,
      "û": 184,
      "ü": 185,
      "ý": 186,
      "þ": 187,
      "ÿ": 188,
      "Ā": 189,
      "ā": 190,
      "Ă": 191,
      "ă": 192,
      "Ą": 193,
      "ą": 194,
      "Ć": 195,
      "ć": 196,
      "Ĉ": 197,
      "ĉ": 198,
      "Ċ": 199,
      "ċ": 200,
      "Č": 201,
      "č": 202,
      "Ď": 203,
      "ď": 204,
      "Đ": 205,
      "đ": 206,
      "Ē": 207,
      "ē": 208,
      "Ĕ": 209,
      "ĕ": 210,
      "Ė": 211,
      "ė": 212,
      "Ę": 213,
      "ę": 214,
      "Ě": 215,
      "ě": 216,
      "Ĝ": 217,
      "ĝ": 218,
      "Ğ": 219,
      "ğ": 220,
      "Ġ": 221,
      "ġ": 222,
      "Ģ": 223,
      "ģ": 224,
      "Ĥ": 225,
      "ĥ": 226,
      "Ħ": 227,
      "ħ": 228,
      "Ĩ": 229,
      "ĩ": 230,
      "Ī": 231,
      "ī": 232,
      "Ĭ": 233,
      "ĭ": 234,
      "Į": 235,
      "į": 236,
      "İ": 237,
      "ı": 238,
      "Ĳ": 239,
      "ĳ": 240,
      "Ĵ": 241,
      "ĵ": 242,
      "Ķ": 243,
      "ķ": 244,
      "ĸ": 245,
      "Ĺ": 246,
      "ĺ": 247,
      "Ļ": 248,
      "ļ": 249,
      "Ľ": 250,
      "ľ": 251,
      "Ŀ": 252,
      "ŀ": 253,
      "Ł": 254,
      "ł": 255,
      "Ń": 256,
      "Ġc": 257,
      "Ġs": 258,
      "te": 259,
      "Ġm": 260,
      "re": 261,
      "ia": 262,
      "ic": 263,
      "Ġp": 264,
      "Ġd": 265,
      "Ġa": 266,
      "ta": 267,
      "on": 268,
      "la": 269,
      "Ġi": 270,
      "er": 271,
      "Ġch": 272,
      "icu": 273,
      "an": 274,
      "en": 275,
      "to": 276,
      "Ġn": 277,
      "un": 278,
      "Ġche": 279,
      "io": 280,
      "ti": 281,
      "Ġf": 282,
      "Ġv": 283,
      "qu": 284,
      "Ġdi": 285,
      "Ġun": 286,
      "Ġqu": 287,
      "nte": 288,
      "are": 289,
      "Nicu": 290,
      "Ġg": 291,
      "tente": 292,
      "Utente": 293,
      "le": 294,
      "el": 295,
      "Ġco": 296,
      "ra": 297,
      "Ġma": 298,
      "ro": 299,
      "Ġb": 300,
      "mo": 301,
      "Ġla": 302,
      "in": 303,
      "Ġe": 304,
      "sc": 305,
      "lo": 306,
      "Ġt": 307,
      "al": 308,
      "ri": 309,
      "do": 310,
      "Ġse": 311,
      "Ã¨": 312,
      "ar": 313,
      "iamo": 314,
      "es": 315,
      "Ġil": 316,
      "Ġin": 317,
      "li": 318,
      "Ġcon": 319,
      "Ġper": 320,
      "ĠÃ¨": 321,
      "Ġal": 322,
      "or": 323,
      "bare": 324,
      "Ġuna": 325,
      "ĠM": 326,
      "Ġnicu": 327,
      "uo": 328,
      "Ġcom": 329,
      "Ġsta": 330,
      "cc": 331,
      "ss": 332,
      "Ġfa": 333,
      "Ġti": 334,
      "era": 335,
      "Ġci": 336,
      "Ġca": 337,
      "Ġmbare": 338,
      "Ġmi": 339,
      "Ġnon": 340,
      "Ġso": 341,
      "Ġtu": 342,
      "Ġmia": 343,
      "Ġl": 344,
      "Ġcos": 345,
      "Ġgio": 346,
      "de": 347,
      "ita": 348,
      "gl": 349,
      "Ġo": 350,
      "ĠT": 351,
      "tto": 352,
      "no": 353,
      "ĠC": 354,
      "Ġte": 355,
      "gia": 356,
      "ella": 357,
      "Ġques": 358,
      "ono": 359,
      "Ġme": 360,
      "Ġle": 361,
      "co": 362,
      "Ġsu": 363,
      "Ġpa": 364,
      "pi": 365,
      "ĠS": 366,
      "ran": 367,
      "Ġsi": 368,
      "va": 369,
      "ci": 370,
      "Ã¬": 371,
      "Ġgioia": 372,
      "zz": 373,
      "so": 374,
      "men": 375,
      "Ġpro": 376,
      "sco": 377,
      "Ġman": 378,
      "ino": 379,
      "na": 380,
      "Ġdo": 381,
      "Ġsen": 382,
      "mp": 383,
      "Ġan": 384,
      "Ġcome": 385,
      "ve": 386,
      "Ġquan": 387,
      "Ġh": 388,
      "ma": 389,
      "ien": 390,
      "alia": 391,
      "ica": 392,
      "ĠTalia": 393,
      "Ġio": 394,
      "ĠP": 395,
      "si": 396,
      "Ġpre": 397,
      "di": 398,
      "vo": 399,
      "ni": 400,
      "ĠMa": 401,
      "Ġda": 402,
      "eri": 403,
      "Ġpo": 404,
      "tta": 405,
      "po": 406,
      "Ġdic": 407,
      "da": 408,
      "sa": 409,
      "mi": 410,
      "Ġcapi": 411,
      "sta": 412,
      "Ġsc": 413,
      "Ġvita": 414,
      "ĠA": 415,
      "Ġsa": 416,
      "Ġmangia": 417,
      "ondo": 418,
      "glio": 419,
      "Ġde": 420,
      "ce": 421,
      "dere": 422,
      "Ġsono": 423,
      "uore": 424,
      "Ġalla": 425,
      "Ġsolo": 426,
      "tti": 427,
      "ssi": 428,
      "Ġve": 429,
      "Ġsenti": 430,
      "Ġdel": 431,
      "rio": 432,
      "Ġquando": 433,
      "glia": 434,
      "vi": 435,
      "Ġquel": 436,
      "ĠL": 437,
      "Ġbel": 438,
      "Ġgi": 439,
      "Ġfacc": 440,
      "mun": 441,
      "one": 442,
      "diamo": 443,
      "Ġr": 444,
      "gg": 445,
      "Ġmare": 446,
      "ch": 447,
      "bi": 448,
      "Ġsp": 449,
      "Ġne": 450,
      "Ġmio": 451,
      "zza": 452,
      "Ġsec": 453,
      "Ġsemp": 454,
      "Ġsecondo": 455,
      "Ġpu": 456,
      "me": 457,
      "Ġqueste": 458,
      "Ġsempre": 459,
      "Ġri": 460,
      "Ġpor": 461,
      "Ġpe": 462,
      "Ġha": 463,
      "Ġquella": 464,
      "Ġmangiare": 465,
      "ĠI": 466,
      "Ġno": 467,
      "prio": 468,
      "Ġsul": 469,
      "Ġpi": 470,
      "ico": 471,
      "zi": 472,
      "Ġcomp": 473,
      "Ġproprio": 474,
      "sci": 475,
      "Ġcapisco": 476,
      "Ġstare": 477,
      "Ġpar": 478,
      "Ġqua": 479,
      "Ġta": 480,
      "Ġtro": 481,
      "gli": 482,
      "Ġgran": 483,
      "tte": 484,
      "Ġst": 485,
      "Ġcosa": 486,
      "Ġmeglio": 487,
      "Ġbu": 488,
      "Ãł": 489,
      "van": 490,
      "Ġcuore": 491,
      "tro": 492,
      "Ġtutto": 493,
      "Ġven": 494,
      "Ġdella": 495,
      "Ã¹": 496,
      "Ġfare": 497,
      "ina": 498,
      "Ġvo": 499,
      "Ġfin": 500,
      "ff": 501,
      "anno": 502,
      "Ġbe": 503,
      "Ġdice": 504,
      "sera": 505,
      "llo": 506,
      "Ġric": 507,
      "inni": 508,
      "ya": 509,
      "bb": 510,
      "laya": 511,
      "ga": 512,
      "ca": 513,
      "ĠG": 514,
      "muninni": 515,
      "sce": 516,
      "ero": 517,
      "Ġpure": 518,
      "ici": 519,
      "Ġlo": 520,
      "scia": 521,
      "Ġvuo": 522,
      "ĠLa": 523,
      "ggi": 524,
      "mb": 525,
      "iente": 526,
      "Ġli": 527,
      "Ġu": 528,
      "Ġniente": 529,
      "Ġchi": 530,
      "ne": 531,
      "ĠcosÃ¬": 532,
      "Ġsto": 533,
      "Ġz": 534,
      "Ġtra": 535,
      "Ġcar": 536,
      "Ġcose": 537,
      "Ġva": 538,
      "ĠV": 539,
      "ĠIo": 540,
      "Ġpass": 541,
      "ĠPlaya": 542,
      "ĠlÃ¬": 543,
      "sto": 544,
      "Ġstasera": 545,
      "Ġcu": 546,
      "ieni": 547,
      "Ġpen": 548,
      "Ġfre": 549,
      "Ġro": 550,
      "Ġgu": 551,
      "Ã²": 552,
      "dare": 553,
      "eg": 554,
      "za": 555,
      "mente": 556,
      "Ġho": 557,
      "Ġgranita": 558,
      "Ġmo": 559,
      "tt": 560,
      "hi": 561,
      "tra": 562,
      "Ġfacciamo": 563,
      "ĠSe": 564,
      "Ġpia": 565,
      "ĠGio": 566,
      "ona": 567,
      "Ġdei": 568,
      "Ġsei": 569,
      "man": 570,
      "ste": 571,
      "ĠÃ": 572,
      "ĠÃĪ": 573,
      "ba": 574,
      "Ġallo": 575,
      "ĠpiÃ¹": 576,
      "Ġoggi": 577,
      "ĠSan": 578,
      "Ġdove": 579,
      "Ġtesta": 580,
      "du": 581,
      "ranc": 582,
      "ene": 583,
      "Ġbed": 584,
      "Ġera": 585,
      "Ġfar": 586,
      "Ġqual": 587,
      "tre": 588,
      "Ġcal": 589,
      "ppo": 590,
      "Ġba": 591,
      "Ġallora": 592,
      "Ġandiamo": 593,
      "bito": 594,
      "Ġcer": 595,
      "ĠLascia": 596,
      "Ġgri": 597,
      "Ġsubito": 598,
      "Ġre": 599,
      "Ġvuoi": 600,
      "Ġsco": 601,
      "Ġaranc": 602,
      "Ġprof": 603,
      "ĠCa": 604,
      "Ġvi": 605,
      "Ġbene": 606,
      "Ġvieni": 607,
      "Ġguar": 608,
      "ĠMi": 609,
      "Ġgriglia": 610,
      "Ġfor": 611,
      "vamo": 612,
      "pp": 613,
      "Ġoh": 614,
      "Ġdal": 615,
      "lissi": 616,
      "che": 617,
      "tic": 618,
      "Ġsulla": 619,
      "tica": 620,
      "gno": 621,
      "ente": 622,
      "Ġsemb": 623,
      "Ġgior": 624,
      "ini": 625,
      "oni": 626,
      "Ġra": 627,
      "Ġzio": 628,
      "Ġperdere": 629,
      "Ġai": 630,
      "uti": 631,
      "Ġporto": 632,
      "Ġquesta": 633,
      "esso": 634,
      "Ġbra": 635,
      "Ġfi": 636,
      "Ġpren": 637,
      "Ġtutti": 638,
      "Ġtroppo": 639,
      "ĠMbare": 640,
      "Ġver": 641,
      "Ġpesce": 642,
      "Ġar": 643,
      "Ġarancino": 644,
      "Ġvic": 645,
      "ue": 646,
      "ĠCuore": 647,
      "Ġstu": 648,
      "Ġhai": 649,
      "Ġser": 650,
      "he": 651,
      "feri": 652,
      "zione": 653,
      "ire": 654,
      "Ġdici": 655,
      "Ġfaccio": 656,
      "Ġquale": 657,
      "Ġgiro": 658,
      "tan": 659,
      "ano": 660,
      "ĠB": 661,
      "vanni": 662,
      "Ġvia": 663,
      "Ġsole": 664,
      "Ġvedere": 665,
      "Ġdopo": 666,
      "ere": 667,
      "Ġam": 668,
      "dia": 669,
      "Ġandare": 670,
      "Ġparla": 671,
      "ĠD": 672,
      "Ġad": 673,
      "go": 674,
      "gino": 675,
      "cia": 676,
      "Ġverso": 677,
      "lla": 678,
      "etta": 679,
      "Ġquesto": 680,
      "ĠAmuninni": 681,
      "Ġbellissi": 682,
      "mani": 683,
      "ĠGiovanni": 684,
      "ĠE": 685,
      "ĠAci": 686,
      "Ġcugino": 687,
      "ĠTu": 688,
      "Ġscogli": 689,
      "Ġsera": 690,
      "ver": 691,
      "sie": 692,
      "sieme": 693,
      "Ġchia": 694,
      "Ġinsieme": 695,
      "Ġcarne": 696,
      "lia": 697,
      "Ġcen": 698,
      "eravi": 699,
      "Ġmeravi": 700,
      "ggia": 701,
      "Ġsai": 702,
      "sca": 703,
      "sp": 704,
      "munÃ¬": 705,
      "cch": 706,
      "Ġdimen": 707,
      "Ġfes": 708,
      "Ġsiamo": 709,
      "Ġvicino": 710,
      "Ġgli": 711,
      "bbiamo": 712,
      "ura": 713,
      "Ġpassa": 714,
      "ing": 715,
      "Ġquanto": 716,
      "ĠCi": 717,
      "Ġricor": 718,
      "ĠperÃ²": 719,
      "Ġfanno": 720,
      "Ġtutta": 721,
      "Ġmeraviglia": 722,
      "Ġpreferi": 723,
      "Ġdue": 724,
      "Ã©": 725,
      "tÃł": 726,
      "Ġquesti": 727,
      "Ġnu": 728,
      "tna": 729,
      "Ġdomani": 730,
      "tare": 731,
      "Ġgo": 732,
      "cora": 733,
      "chÃ©": 734,
      "meno": 735,
      "Ġmen": 736,
      "pa": 737,
      "Ġquelle": 738,
      "Ġamuninni": 739,
      "Ġgrigliata": 740,
      "..": 741,
      "mmi": 742,
      "Ġancora": 743,
      "qua": 744,
      "zzo": 745,
      "Ġdiceva": 746,
      "Ġmu": 747,
      "colo": 748,
      "ria": 749,
      "tania": 750,
      "Ġstudia": 751,
      "umo": 752,
      "cosa": 753,
      "Ġimp": 754,
      "Ġqualcosa": 755,
      "Ġmondo": 756,
      "Ġvera": 757,
      "Ġcompare": 758,
      "Ġieri": 759,
      "nata": 760,
      "Ġroba": 761,
      "Ġdimentic": 762,
      "ĠperchÃ©": 763,
      "Ġto": 764,
      "Ġnuo": 765,
      "cqua": 766,
      "Ġpasta": 767,
      "cco": 768,
      "Ġsembra": 769,
      "Ġvenire": 770,
      "Ġporta": 771,
      "Ġricci": 772,
      "Ġbrace": 773,
      "ĠU": 774,
      "lle": 775,
      "sciamo": 776,
      "Ġcor": 777,
      "elo": 778,
      "Ġvol": 779,
      "ru": 780,
      "sica": 781,
      "Ġpens": 782,
      "Ġsal": 783,
      "Ġlu": 784,
      "ĠCo": 785,
      "Ġscogliera": 786,
      "Ġnonna": 787,
      "Ġtalia": 788,
      "ĠCuti": 789,
      "Ġbeddu": 790,
      "der": 791,
      "ssa": 792,
      "Ġamici": 793,
      "Ġfatto": 794,
      "Ġbar": 795,
      "Ġdalla": 796,
      "Ġbella": 797,
      "iene": 798,
      "Ġgente": 799,
      "sti": 800,
      "Ġtuff": 801,
      "Ġdell": 802,
      "Ġnoi": 803,
      "vece": 804,
      "Ġfo": 805,
      "Ġparo": 806,
      "Ġgiornata": 807,
      "Ġfai": 808,
      "ĠCatania": 809,
      "Ġcol": 810,
      "Ġanda": 811,
      "Ġinvece": 812,
      "Ġmentre": 813,
      "se": 814,
      "Ġnos": 815,
      "Ġsenza": 816,
      "stello": 817,
      "Ġbedda": 818,
      "lica": 819,
      "ttina": 820,
      "Ġqui": 821,
      "Ġarri": 822,
      "Ġpreferisco": 823,
      "Ġinc": 824,
      "ĠMia": 825,
      "val": 826,
      "Ġdimmi": 827,
      "Ġdai": 828,
      "Ġdevo": 829,
      "Ġcomplica": 830,
      "Ġcono": 831,
      "Ġfesta": 832,
      "iao": 833,
      "Ġprepa": 834,
      "meri": 835,
      "sso": 836,
      "Ġcentro": 837,
      "Ġstai": 838,
      "Ġposto": 839,
      "Ġricordi": 840,
      "Ġpri": 841,
      "Ġnel": 842,
      "Ġpoi": 843,
      "rate": 844,
      "Ġbelle": 845,
      "endo": 846,
      "Ġpiatto": 847,
      "Ġste": 848,
      "cio": 849,
      "Ġlib": 850,
      "seg": 851,
      "Ġspi": 852,
      "scito": 853,
      "bile": 854,
      "gra": 855,
      "Ġspia": 856,
      "Ġmai": 857,
      "Ġabbiamo": 858,
      "Ġtan": 859,
      "Ġsento": 860,
      "Ġpassi": 861,
      "Ġvolta": 862,
      "Ġscri": 863,
      "rare": 864,
      "am": 865,
      "ha": 866,
      "Ġdevi": 867,
      "ando": 868,
      "ante": 869,
      "usa": 870,
      "Ġvedo": 871,
      "Ġbagno": 872,
      "gn": 873,
      "Ġlun": 874,
      "Ġinte": 875,
      "ĠVita": 876,
      "ute": 877,
      "Ġlascia": 878,
      "Ġspiaggia": 879,
      "Ġfine": 880,
      "ĠN": 881,
      "ndo": 882,
      "lini": 883,
      "Ġhanno": 884,
      "Ġbellissima": 885,
      "ua": 886,
      "sione": 887,
      "ĠQ": 888,
      "menti": 889,
      "amico": 890,
      "rla": 891,
      "Ġcapire": 892,
      "onta": 893,
      "Ġinseg": 894,
      "Ġbarca": 895,
      "Ġfer": 896,
      "Ġfresco": 897,
      "zia": 898,
      "Ġfarci": 899,
      "zze": 900,
      "Ġnumeri": 901,
      "acqua": 902,
      "gi": 903,
      "Ġsan": 904,
      "Ġon": 905,
      "Ġprofesso": 906,
      "Ġspa": 907,
      "lebi": 908,
      "lebiscito": 909,
      "Ġcasa": 910,
      "Etna": 911,
      "Ġprima": 912,
      "Ġuno": 913,
      "Ġquelli": 914,
      "Ġmal": 915,
      "Ġapp": 916,
      "cca": 917,
      "mento": 918,
      "gna": 919,
      "Ġmusica": 920,
      "vanti": 921,
      "ĠQu": 922,
      "ĠO": 923,
      "Ġfrate": 924,
      "ena": 925,
      "Ġciao": 926,
      "ĠSta": 927,
      "zzi": 928,
      "vallo": 929,
      "Ġfratello": 930,
      "ei": 931,
      "eria": 932,
      "ĠMio": 933,
      "Ġfun": 934,
      "Ġacc": 935,
      "Ġero": 936,
      "Ġtemp": 937,
      "Ġdavanti": 938,
      "Ġscuo": 939,
      "Ġtrov": 940,
      "Ġfresca": 941,
      "ĠF": 942,
      "Ġdie": 943,
      "Ġvediamo": 944,
      "Ġbuona": 945,
      "almente": 946,
      "lu": 947,
      "Ġonde": 948,
      "Ġscuola": 949,
      "Ġbellezza": 950,
      "sse": 951,
      "Ġguardare": 952,
      "Ġcapisci": 953,
      "Ġcavallo": 954,
      "vano": 955,
      "gni": 956,
      "ĠPer": 957,
      "Ġchie": 958,
      "ĠAmunÃ¬": 959,
      "Ġconf": 960,
      "ĠamunÃ¬": 961,
      "Ġling": 962,
      "Ġpreso": 963,
      "alla": 964,
      "Ġbrio": 965,
      "ĠGioia": 966,
      "Ġmatto": 967,
      "Ġbrioche": 968,
      "Ġfunzi": 969,
      "Ġpie": 970,
      "ice": 971,
      "eggia": 972,
      "Ġall": 973,
      "lli": 974,
      "Ġspetta": 975,
      "rano": 976,
      "ed": 977,
      "Ġveniamo": 978,
      "Ġsap": 979,
      "ven": 980,
      "esti": 981,
      "ĠPlebiscito": 982,
      "Ġdiver": 983,
      "ine": 984,
      "Ġscor": 985,
      "Ġstoria": 986,
      "Ġlibri": 987,
      "Ġmiglio": 988,
      "Ġspe": 989,
      "Ġcorre": 990,
      "Ġstudiare": 991,
      "orma": 992,
      "Ġfinalmente": 993,
      "tori": 994,
      "Ġprofessori": 995,
      "Ġpasseggia": 996,
      "chi": 997,
      "ssimo": 998,
      "Ġserata": 999,
      "dre": 1000,
      "Ġfini": 1001,
      "gata": 1002,
      "pra": 1003,
      "ttamente": 1004,
      "ttiamo": 1005,
      "ai": 1006,
      "Ġbi": 1007,
      "Ġfuo": 1008,
      "Ġcaldo": 1009,
      "Ġtempo": 1010,
      "Ġsopra": 1011,
      "Ġspettacolo": 1012,
      "...": 1013,
      "Ġraga": 1014,
      "Ġdol": 1015,
      "cchi": 1016,
      "mmeno": 1017,
      "Ġstata": 1018,
      "Ġpic": 1019,
      "Ġprofumo": 1020,
      "mina": 1021,
      "tiamo": 1022,
      "Ġmacch": 1023,
      "Ġquello": 1024,
      "Ġbello": 1025,
      "Ġsca": 1026,
      "Ġnemmeno": 1027,
      "Ġter": 1028,
      "Ġserve": 1029,
      "Ġgiorno": 1030,
      "Ġstelle": 1031,
      "trezza": 1032,
      "Ġparlare": 1033,
      "sino": 1034,
      "vero": 1035,
      "Ġdelle": 1036,
      "ggio": 1037,
      "dea": 1038,
      "ccia": 1039,
      "onto": 1040,
      "Ġnostra": 1041,
      "mattina": 1042,
      "Ġconosco": 1043,
      "Ġbuono": 1044,
      "ĠLi": 1045,
      "orta": 1046,
      "Ġpasseggiata": 1047,
      "Ġappena": 1048,
      "dra": 1049,
      "Ġmadre": 1050,
      "Ġquasi": 1051,
      "ttÃł": 1052,
      "ĠcittÃł": 1053,
      "qui": 1054,
      "arci": 1055,
      "ĠNicu": 1056,
      "ĠChe": 1057,
      "Ġsale": 1058,
      "Ġvero": 1059,
      "logia": 1060,
      "rea": 1061,
      "redi": 1062,
      "ani": 1063,
      "uto": 1064,
      "Ġprendiamo": 1065,
      "ĠCome": 1066,
      "Ġvoglia": 1067,
      "Ġsentire": 1068,
      "ĠSi": 1069,
      "Ġsar": 1070,
      "Ġlavo": 1071,
      "Ġstran": 1072,
      "Ġor": 1073,
      "Ġtutte": 1074,
      "Ġgrande": 1075,
      "Ġcomplicate": 1076,
      "mpa": 1077,
      "Ġconfu": 1078,
      "Ġdico": 1079,
      "ffici": 1080,
      "bbia": 1081,
      "Ġballa": 1082,
      "ĠsÃ¬": 1083,
      "Ġban": 1084,
      "ĠSono": 1085,
      "Ġsui": 1086,
      "ur": 1087,
      "uomo": 1088,
      "Ġdire": 1089,
      "Ġarriva": 1090,
      "Ġalle": 1091,
      "Ġen": 1092,
      "Ġlasciamo": 1093,
      "Ġchiami": 1094,
      "Ġasp": 1095,
      "Ġvai": 1096,
      "sch": 1097,
      "Ġmettiamo": 1098,
      "tura": 1099,
      "vere": 1100,
      "ĠVieni": 1101,
      "Ġguarda": 1102,
      "Ġfunziona": 1103,
      "Ġstra": 1104,
      "Ġstamattina": 1105,
      "Ġaiuti": 1106,
      "Ġcan": 1107,
      "Ġmale": 1108,
      "Ġconv": 1109,
      "ĠTi": 1110,
      "indi": 1111,
      "ĠAcitrezza": 1112,
      "Ġvuole": 1113,
      "ĠCastello": 1114,
      "Ġlui": 1115,
      "Ġcosta": 1116,
      "Ġparole": 1117,
      "Ġincredi": 1118,
      "Ġpensi": 1119,
      "Ġsotto": 1120,
      "Ġviene": 1121,
      "etto": 1122,
      "rti": 1123,
      "mma": 1124,
      "Ġsull": 1125,
      "ese": 1126,
      "Ġbor": 1127,
      "Ġfresc": 1128,
      "aria": 1129,
      "ĠMe": 1130,
      "Ġtre": 1131,
      "ĠgiÃł": 1132,
      "Ġprepara": 1133,
      "Ġconfusione": 1134,
      "Ġmezzo": 1135,
      "vvero": 1136,
      "Ġrumo": 1137,
      "ttere": 1138,
      "rie": 1139,
      "Ġquindi": 1140,
      "ĠBed": 1141,
      "Ġdiven": 1142,
      "Ġcod": 1143,
      "ĠBel": 1144,
      "Ġsol": 1145,
      "Ġfino": 1146,
      "Ġvisto": 1147,
      "Ġspecia": 1148,
      "rmi": 1149,
      "Ġbellissimo": 1150,
      "Ġdavvero": 1151,
      "ranqui": 1152,
      "estra": 1153,
      "Ġidea": 1154,
      "enza": 1155,
      "hiamo": 1156,
      "Ġnonno": 1157,
      "care": 1158,
      "etna": 1159,
      "Ġgirare": 1160,
      "Ġrumore": 1161,
      "Ġdiffici": 1162,
      "ĠVai": 1163,
      "zioni": 1164,
      "Ġtri": 1165,
      "Ġincredibile": 1166,
      "Ġtuo": 1167,
      "Ġing": 1168,
      "Ġdri": 1169,
      "Ġpesci": 1170,
      "esa": 1171,
      "Ġora": 1172,
      "Ġtranqui": 1173,
      "Ġtuffo": 1174,
      "Ġconviene": 1175,
      "rno": 1176,
      "tru": 1177,
      "mare": 1178,
      "Ġimpa": 1179,
      "ĠPerÃ²": 1180,
      "mu": 1181,
      "Ġfinestra": 1182,
      "gio": 1183,
      "tri": 1184,
      "Ġandata": 1185,
      "Ġquei": 1186,
      "Ġforte": 1187,
      "Ġinf": 1188,
      "ssima": 1189,
      "Ġsoldi": 1190,
      "Ġspieg": 1191,
      "Ġsucc": 1192,
      "Ġpiace": 1193,
      "armi": 1194,
      "ĠMeglio": 1195,
      "ĠUna": 1196,
      "ĠgiÃ¹": 1197,
      "Ġpensare": 1198,
      "unica": 1199,
      "Ġna": 1200,
      "Ġass": 1201,
      "Ġgra": 1202,
      "Ġfel": 1203,
      "Ġeh": 1204,
      "ormina": 1205,
      "Ġquanti": 1206,
      "uter": 1207,
      "Ġeravamo": 1208,
      "rezza": 1209,
      "iche": 1210,
      "Ġcena": 1211,
      "Ġpesca": 1212,
      "Ġpura": 1213,
      "Ġvelo": 1214,
      "Ġsulle": 1215,
      "Ġge": 1216,
      "Ġface": 1217,
      "Ġcam": 1218,
      "Ġdobbiamo": 1219,
      "Ġbo": 1220,
      "llig": 1221,
      "Ġgoder": 1222,
      "Ġstavo": 1223,
      "Ġscusa": 1224,
      "ĠR": 1225,
      "nato": 1226,
      "Ġden": 1227,
      "Ġgita": 1228,
      "anti": 1229,
      "Ġfeste": 1230,
      "Ġcastello": 1231,
      "Ġstorie": 1232,
      "Ġlei": 1233,
      "Ġcerca": 1234,
      "Ġsci": 1235,
      "Ġcap": 1236,
      "ello": 1237,
      "Ġcarte": 1238,
      "Ġtor": 1239,
      "ĠPo": 1240,
      "Ġmacchina": 1241,
      "ĠIl": 1242,
      "ali": 1243,
      "Ġgig": 1244,
      "Ġtram": 1245,
      "Ġesa": 1246,
      "Ġfaccia": 1247,
      "Ġparti": 1248,
      "opo": 1249,
      "pe": 1250,
      "Ġbutta": 1251,
      "Ġgodiamo": 1252,
      "Ġnorma": 1253,
      "Ġcompa": 1254,
      "gari": 1255,
      "Ġconti": 1256,
      "Ġperf": 1257,
      "eno": 1258,
      "Ġtriste": 1259,
      "Ġpensa": 1260,
      "Ġap": 1261,
      "icio": 1262,
      "Ġchiedi": 1263,
      "Ġlegg": 1264,
      "Ġdentro": 1265,
      "Ġscen": 1266,
      "vono": 1267,
      "bbe": 1268,
      "stica": 1269,
      "drai": 1270,
      "Ġzia": 1271,
      "ĠEra": 1272,
      "Ġridere": 1273,
      "scheria": 1274,
      "dio": 1275,
      "Ġtramonto": 1276,
      "Ġlingua": 1277,
      "Ġvedrai": 1278,
      "Ġmangiato": 1279,
      "Ġpol": 1280,
      "Ġamico": 1281,
      "Ġess": 1282,
      "Ġpan": 1283,
      "Ġw": 1284,
      "Ġgiu": 1285,
      "Ġpaura": 1286,
      "ĠSanta": 1287,
      "lese": 1288,
      "tu": 1289,
      "Ġstan": 1290,
      "Ġcomputer": 1291,
      "ĠUn": 1292,
      "Ġseria": 1293,
      "Ġstato": 1294,
      "Ġfri": 1295,
      "coli": 1296,
      "Ġlavoro": 1297,
      "Ġmigliore": 1298,
      "Ġres": 1299,
      "lto": 1300,
      "Ġpreparo": 1301,
      "ega": 1302,
      "Ġsentito": 1303,
      "Ġstrada": 1304,
      "ĠTutto": 1305,
      "Ġdolce": 1306,
      "mica": 1307,
      "Ġusci": 1308,
      "Ġed": 1309,
      "ggiare": 1310,
      "ortante": 1311,
      "Ġcro": 1312,
      "fficio": 1313,
      "Ġbasta": 1314,
      "Ġvento": 1315,
      "Ġurla": 1316,
      "Ġacqua": 1317,
      "Ġcri": 1318,
      "Ġcozze": 1319,
      "Ġrico": 1320,
      "fia": 1321,
      "Ġgen": 1322,
      "Ġracc": 1323,
      "Ġpiazza": 1324,
      "Ġmate": 1325,
      "Ġav": 1326,
      "Ġnella": 1327,
      "Ġparli": 1328,
      "sic": 1329,
      "Ġtanta": 1330,
      "Ġmoto": 1331,
      "tale": 1332,
      "Ġtec": 1333,
      "tne": 1334,
      "esta": 1335,
      "ĠTa": 1336,
      "Ġveri": 1337,
      "Ġparola": 1338,
      "uta": 1339,
      "erta": 1340,
      "Ġsalsic": 1341,
      "que": 1342,
      "fi": 1343,
      "Ġfu": 1344,
      "ĠStasera": 1345,
      "Ġprendere": 1346,
      "Ġrie": 1347,
      "Ġscal": 1348,
      "ĠTaormina": 1349,
      "limenti": 1350,
      "utto": 1351,
      "Ġessere": 1352,
      "cchio": 1353,
      "arlo": 1354,
      "Ġdimentichi": 1355,
      "Ġcontare": 1356,
      "Ġforza": 1357,
      "Ġdeve": 1358,
      "acc": 1359,
      "Ġstati": 1360,
      "Ġseg": 1361,
      "Ġpare": 1362,
      "Ġcerto": 1363,
      "Ġmer": 1364,
      "ĠAn": 1365,
      "rac": 1366,
      "zie": 1367,
      "Ġdimenticare": 1368,
      "racusa": 1369,
      "Ġaspetta": 1370,
      "Ġmatti": 1371,
      "Ġfeno": 1372,
      "ele": 1373,
      "Ġave": 1374,
      "Ġesattamente": 1375,
      "vesti": 1376,
      "ppe": 1377,
      "Ġcostata": 1378,
      "litica": 1379,
      "ĠPe": 1380,
      "Ġcasino": 1381,
      "Ġcielo": 1382,
      "Ġconsi": 1383,
      "glioni": 1384,
      "Ġini": 1385,
      "Ġsore": 1386,
      "icura": 1387,
      "tnea": 1388,
      "Ġfenomeno": 1389,
      "raglioni": 1390,
      "lan": 1391,
      "Ġsorella": 1392,
      "Ġrespi": 1393,
      "menica": 1394,
      "Ġricotta": 1395,
      "Ġcuc": 1396,
      "reale": 1397,
      "Ġspiega": 1398,
      "Ġimportante": 1399,
      "tico": 1400,
      "Ġpietra": 1401,
      "Ġsant": 1402,
      "Ġsalsiccia": 1403,
      "mozione": 1404,
      "Ġfreschi": 1405,
      "Ġmanco": 1406,
      "gani": 1407,
      "Ġsia": 1408,
      "Ġsacco": 1409,
      "Ġmagari": 1410,
      "ĠDuomo": 1411,
      "enti": 1412,
      "Ġaha": 1413,
      "Ġmolto": 1414,
      "Ġcalda": 1415,
      "Ġmattina": 1416,
      "Ġfame": 1417,
      "Ġtrovi": 1418,
      "gnina": 1419,
      "Ġperso": 1420,
      "Ġspazza": 1421,
      "Ġnuotare": 1422,
      "Ġogni": 1423,
      "Ġserio": 1424,
      "Ġfisica": 1425,
      "una": 1426,
      "Ġorgani": 1427,
      "Ġluce": 1428,
      "Ġborsa": 1429,
      "lmente": 1430,
      "Ġchimica": 1431,
      "Ġvede": 1432,
      "Ġparlo": 1433,
      "ll": 1434,
      "Ġspazzatura": 1435,
      "zio": 1436,
      "ede": 1437,
      "Ġfuori": 1438,
      "Ġmatema": 1439,
      "Ġdomenica": 1440,
      "Ġintellig": 1441,
      "mar": 1442,
      "Ġinizia": 1443,
      "iato": 1444,
      "Ġrisa": 1445,
      "Ġchiama": 1446,
      "Ġneve": 1447,
      "Ġricordo": 1448,
      "ĠTrezza": 1449,
      "Ġalmeno": 1450,
      "Ġfred": 1451,
      "Ġdicono": 1452,
      "cciata": 1453,
      "Ġer": 1454,
      "Ġmando": 1455,
      "',": 1456,
      "Ġscrive": 1457,
      "Ġvole": 1458,
      "Ġinvesti": 1459,
      "Ġtanto": 1460,
      "ento": 1461,
      "uttosto": 1462,
      "Ġaci": 1463,
      "Ġmette": 1464,
      "bo": 1465,
      "vola": 1466,
      "Ġprossima": 1467,
      "Ġprofu": 1468,
      "ĠLo": 1469,
      "verno": 1470,
      "Ġpolpe": 1471,
      "Ġfaceva": 1472,
      "cato": 1473,
      "tivo": 1474,
      "Ġore": 1475,
      "lanz": 1476,
      "ĠpuÃ²": 1477,
      "Ġdietro": 1478,
      "lanzan": 1479,
      "Ġsarde": 1480,
      "ĠPre": 1481,
      "stro": 1482,
      "inf": 1483,
      "Ġfarmi": 1484,
      "Ġmagia": 1485,
      "Ġlav": 1486,
      "Ġsabbia": 1487,
      "Ġinglese": 1488,
      "ffÃ¨": 1489,
      "Ġsve": 1490,
      "Ġsembrano": 1491,
      "Ġpara": 1492,
      "agata": 1493,
      "ĠcaffÃ¨": 1494,
      "Ġdeli": 1495,
      "Ġspecialmente": 1496,
      "dono": 1497,
      "Ġsembri": 1498,
      "Ġgenio": 1499,
      "ĠAllo": 1500,
      "ĠAllora": 1501,
      "Ġsor": 1502,
      "Ġcolo": 1503,
      "Ġcapito": 1504,
      "loso": 1505,
      "ĠPia": 1506,
      "Ġbusta": 1507,
      "Ġcercare": 1508,
      "Ġpartita": 1509,
      "Ġmatematica": 1510,
      "Ġdate": 1511,
      "ul": 1512,
      "Ġusciamo": 1513,
      "glie": 1514,
      "lato": 1515,
      "Ġmangi": 1516,
      "Ġpr": 1517,
      "ui": 1518,
      "Ġmandorla": 1519,
      "Ġpreferisci": 1520,
      "ĠCic": 1521,
      "erto": 1522,
      "Ġtua": 1523,
      "Ġmelanzan": 1524,
      "ĠPiazza": 1525,
      "Ġdritto": 1526,
      "liamo": 1527,
      "Ġlettere": 1528,
      "Ġsigno": 1529,
      "erie": 1530,
      "Ġstor": 1531,
      "Ġmille": 1532,
      "Ġvado": 1533,
      "Ġpolpette": 1534,
      "ĠLasciamo": 1535,
      "ĠComp": 1536,
      "Ġadesso": 1537,
      "iale": 1538,
      "Ġquante": 1539,
      "alba": 1540,
      "Ġdelirio": 1541,
      "par": 1542,
      "Ġinsegno": 1543,
      "cano": 1544,
      "Ġballare": 1545,
      "Ġprender": 1546,
      "Ġtotale": 1547,
      "Ġcre": 1548,
      "tuna": 1549,
      "Ġtrovare": 1550,
      "sico": 1551,
      "Ġchio": 1552,
      "Ġfili": 1553,
      "Ġparadi": 1554,
      "ĠBellini": 1555,
      "Ġparadiso": 1556,
      "Ġtasse": 1557,
      "Ġcucina": 1558,
      "inverno": 1559,
      "Ġdall": 1560,
      "Ġrila": 1561,
      "Ġdirmi": 1562,
      "Ġinsegnato": 1563,
      "Ġscalda": 1564,
      "Ġpes": 1565,
      "Ġvoglio": 1566,
      "Ġpensarci": 1567,
      "altro": 1568,
      "Ġbiso": 1569,
      "Ġtristezza": 1570,
      "Ġbracio": 1571,
      "Ġcodice": 1572,
      "mpi": 1573,
      "elle": 1574,
      "ĠDi": 1575,
      "Ġpesc": 1576,
      "Ġbru": 1577,
      "Ġimpazz": 1578,
      "ĠComplimenti": 1579,
      "Ġstavamo": 1580,
      "be": 1581,
      "ĠH": 1582,
      "resti": 1583,
      "Ġsba": 1584,
      "tr": 1585,
      "ian": 1586,
      "Ġga": 1587,
      "Ġdiventa": 1588,
      "Ġguardo": 1589,
      "ĠBeddu": 1590,
      "rci": 1591,
      "Ġfaraglioni": 1592,
      "Ġstrane": 1593,
      "Ġuscire": 1594,
      "Ġchiacchi": 1595,
      "Ġfuoco": 1596,
      "Ġgira": 1597,
      "ĠSiracusa": 1598,
      "Ġele": 1599,
      "ĠSant": 1600,
      "anto": 1601,
      "Ġmomento": 1602,
      "gione": 1603,
      "Ġposso": 1604,
      "altra": 1605,
      "Ġchiosco": 1606,
      "Ġcapita": 1607,
      "Ġerano": 1608,
      "Ġbraciole": 1609,
      "Ġfelici": 1610,
      "Ġplaya": 1611,
      "lopi": 1612,
      "Ġlungo": 1613,
      "Ġleggi": 1614,
      "Ġfarti": 1615,
      "Ġprogra": 1616,
      "ĠOgnina": 1617,
      "Ġtranquillo": 1618,
      "Ġveloce": 1619,
      "Ġufficio": 1620,
      "Ġassur": 1621,
      "ĠBedda": 1622,
      "Ġsuccede": 1623,
      "ĠVi": 1624,
      "Ġfortuna": 1625,
      "Ġride": 1626,
      "ĠCerta": 1627,
      "ĠCertamente": 1628,
      "ĠEtnea": 1629,
      "Ġquell": 1630,
      "mano": 1631,
      "Ġmeno": 1632,
      "Ġlido": 1633,
      "lare": 1634,
      "hia": 1635,
      "Ġfatti": 1636,
      "pomu": 1637,
      "zo": 1638,
      "Ġmano": 1639,
      "miamo": 1640,
      "Ġspieghi": 1641,
      "Ġdiverti": 1642,
      "pomulini": 1643,
      "Ġmag": 1644,
      "Ġdolci": 1645,
      "Ġdieci": 1646,
      "sf": 1647,
      "sicologia": 1648,
      "Ġdifficile": 1649,
      "Ġfinisce": 1650,
      "mia": 1651,
      "Ġzona": 1652,
      "cino": 1653,
      "rebbe": 1654,
      "gono": 1655,
      "egn": 1656,
      "Ġmetto": 1657,
      "zzillo": 1658,
      "tif": 1659,
      "llow": 1660,
      "llower": 1661,
      "Ġpensieri": 1662,
      "ĠChiamo": 1663,
      "Ġpescheria": 1664,
      "Ġfollower": 1665,
      "ĠsarÃł": 1666,
      "aran": 1667,
      "Ġpiccolo": 1668,
      "opolitica": 1669,
      "Ġnulla": 1670,
      "Ġfiloso": 1671,
      "ure": 1672,
      "Ġpien": 1673,
      "Ġvin": 1674,
      "Ġrisate": 1675,
      "fo": 1676,
      "Ġguardavo": 1677,
      "Agata": 1678,
      "Ġrobe": 1679,
      "ĠNon": 1680,
      "Ġcui": 1681,
      "rsino": 1682,
      "Ġserie": 1683,
      "Ġmica": 1684,
      "mart": 1685,
      "Ġdimentichiamo": 1686,
      "Ġaccen": 1687,
      "Ġvista": 1688,
      "Ġgigante": 1689,
      "cendo": 1690,
      "Ġposti": 1691,
      "eritivo": 1692,
      "ticcio": 1693,
      "Ġbuoni": 1694,
      "giorno": 1695,
      "uno": 1696,
      "rato": 1697,
      "Ġdevoti": 1698,
      "Ġnostro": 1699,
      "Ġmigliori": 1700,
      "Ġlidi": 1701,
      "Ġdifficili": 1702,
      "Ġprote": 1703,
      "Ġtatt": 1704,
      "ticciolo": 1705,
      "Ġporticciolo": 1706,
      "stra": 1707,
      "Ġvedi": 1708,
      "Ġtrova": 1709,
      "Ġconsigli": 1710,
      "ess": 1711,
      "ĠRo": 1712,
      "ĠPreferi": 1713,
      "Ġfreddo": 1714,
      "arancino": 1715,
      "rei": 1716,
      "Ġprepar": 1717,
      "gnia": 1718,
      "Ġcatania": 1719,
      "Ġcompagnia": 1720,
      "Ġdeci": 1721,
      "Ġvicina": 1722,
      "cu": 1723,
      "Ġservono": 1724,
      "Ġtuffi": 1725,
      "Ġce": 1726,
      "Ġmente": 1727,
      "Ġanno": 1728,
      "ĠBellissi": 1729,
      "ĠAcireale": 1730,
      "ĠPreferisco": 1731,
      "dar": 1732,
      "ppia": 1733,
      "Ġnuova": 1734,
      "Ġvino": 1735,
      "egneria": 1736,
      "giamo": 1737,
      "Ġdor": 1738,
      "Ġaltri": 1739,
      "Ġstudiando": 1740,
      "Ġmercato": 1741,
      "Ġsie": 1742,
      "Ġus": 1743,
      "rra": 1744,
      "Ġbere": 1745,
      "Ġsorri": 1746,
      "Ġimpazzire": 1747,
      "Ġamo": 1748,
      "ttr": 1749,
      "Ġnotte": 1750,
      "Ġsmart": 1751,
      "Ġesp": 1752,
      "Ġanche": 1753,
      "Ġpsicologia": 1754,
      "Ġsembrava": 1755,
      "Ġlunga": 1756,
      "Ġvuol": 1757,
      "Ġmiei": 1758,
      "rsi": 1759,
      "ĠMaria": 1760,
      "Ġbisogna": 1761,
      "onti": 1762,
      "este": 1763,
      "Ġmotori": 1764,
      "ĠFacc": 1765,
      "id": 1766,
      "iciale": 1767,
      "iologia": 1768,
      "ĠDio": 1769,
      "Ġfacendo": 1770,
      "Ġacco": 1771,
      "unque": 1772,
      "Ġbri": 1773,
      "Ġcaro": 1774,
      "Ġragione": 1775,
      "Ġterri": 1776,
      "Ġcamb": 1777,
      "Ġcalcoli": 1778,
      "Ġpers": 1779,
      "Ġpreci": 1780,
      "Ġmangiamo": 1781,
      "Ġparliamo": 1782,
      "Ġvolte": 1783,
      "Ġpace": 1784,
      "Ġporti": 1785,
      "Ġartif": 1786,
      "Ġsogno": 1787,
      "ork": 1788,
      "Ġmelanzane": 1789,
      "Ġpensavo": 1790,
      "stic": 1791,
      "anima": 1792,
      "Ġenor": 1793,
      "inare": 1794,
      "Ġbian": 1795,
      "gu": 1796,
      "esi": 1797,
      "Ġartificiale": 1798,
      "rdi": 1799,
      "rtigia": 1800,
      "Ġforma": 1801,
      "Ġterribile": 1802,
      "Ġpensiamo": 1803,
      "Ġguer": 1804,
      "Ġmassimo": 1805,
      "Ġcamm": 1806,
      "vare": 1807,
      "Ġperfetta": 1808,
      "Ġnome": 1809,
      "Ġprofuma": 1810,
      "Ġwork": 1811,
      "ĠOrtigia": 1812,
      "Ġpescatori": 1813,
      "Ġfatta": 1814,
      "ora": 1815,
      "Ġbuon": 1816,
      "Ġlim": 1817,
      "Ġqualche": 1818,
      "Ġfelice": 1819,
      "ĠCapomulini": 1820,
      "lazione": 1821,
      "ĠCiclopi": 1822,
      "Ġscordi": 1823,
      "Ġworking": 1824,
      "Ġahaha": 1825,
      "Ġfilosofia": 1826,
      "Ġnuovo": 1827,
      "Ġah": 1828,
      "Ġmuo": 1829,
      "Ġsiste": 1830,
      "ĠTuri": 1831,
      "omb": 1832,
      "ĠFacciamo": 1833,
      "Ġpassato": 1834,
      "Ġemozione": 1835,
      "fante": 1836,
      "torno": 1837,
      "mette": 1838,
      "Ġrisp": 1839,
      "bili": 1840,
      "fico": 1841,
      "ĠVilla": 1842,
      "Ġsanta": 1843,
      "Ġchiamo": 1844,
      "ssiamo": 1845,
      "Ġstadio": 1846,
      "Ġgiganti": 1847,
      "tmo": 1848,
      "Ġfarsi": 1849,
      "gare": 1850,
      "Ġincanto": 1851,
      "Ġrif": 1852,
      "Ġscar": 1853,
      "Ġportiamo": 1854,
      "Ġferma": 1855,
      "arti": 1856,
      "Ġintorno": 1857,
      "Ġtardi": 1858,
      "Ġcanno": 1859,
      "rocco": 1860,
      "Ġaperitivo": 1861,
      "Ġaccompa": 1862,
      "Ġpazze": 1863,
      "scono": 1864,
      "Ġdov": 1865,
      "Ġracconta": 1866,
      "Ġesce": 1867,
      "Ġpal": 1868,
      "Ġabb": 1869,
      "Ġmin": 1870,
      "Ġdisco": 1871,
      "Ġveloci": 1872,
      "Ġcroci": 1873,
      "Ġorganizz": 1874,
      "Ġaltro": 1875,
      "Ġandati": 1876,
      "Ġsveglia": 1877,
      "Ġaria": 1878,
      "pto": 1879,
      "Ġpietre": 1880,
      "icÃ¹": 1881,
      "Ġarancini": 1882,
      "ĠSca": 1883,
      "dore": 1884,
      "Ġpran": 1885,
      "Ġavere": 1886,
      "read": 1887,
      "oro": 1888,
      "cce": 1889,
      "Ġprova": 1890,
      "Ġdisp": 1891,
      "Ġdello": 1892,
      "Ġsignora": 1893,
      "ec": 1894,
      "ĠIn": 1895,
      "Ġbiologia": 1896,
      "Ġnelle": 1897,
      "ĠBellissima": 1898,
      "ĠCiao": 1899,
      "ĠnicÃ¹": 1900,
      "Ġdiscote": 1901,
      "Ġspread": 1902,
      "Ġperfetto": 1903,
      "Ġsente": 1904,
      "Ġsedu": 1905,
      "Ġteso": 1906,
      "Ġdisa": 1907,
      "estate": 1908,
      "Ġfiato": 1909,
      "ĠPozzillo": 1910,
      "ĠDo": 1911,
      "Ġfig": 1912,
      "ĠDopo": 1913,
      "Ġdimenticarlo": 1914,
      "Ġchiu": 1915,
      "Ġmon": 1916,
      "Ġspeciale": 1917,
      "cra": 1918,
      "Ġperdo": 1919,
      "Ġfresche": 1920,
      "Ġdato": 1921,
      "stero": 1922,
      "Ġmacchine": 1923,
      "ĠPoi": 1924,
      "Ġnera": 1925,
      "Ġdisastro": 1926,
      "zzur": 1927,
      "Ġconta": 1928,
      "Ġbon": 1929,
      "Ġcerte": 1930,
      "Ġlonta": 1931,
      "Ġcipo": 1932,
      "Ġsagra": 1933,
      "Ġcaso": 1934,
      "Ġpassano": 1935,
      "ĠPi": 1936,
      "ccio": 1937,
      "ppa": 1938,
      "hai": 1939,
      "Ġgodersi": 1940,
      "icilia": 1941,
      "ĠScala": 1942,
      "Ġscendere": 1943,
      "ĠLe": 1944,
      "Ġcripto": 1945,
      "Ġmonta": 1946,
      "Ġfesteggiare": 1947,
      "Ġlungomare": 1948,
      "ĠGra": 1949,
      "atti": 1950,
      "lata": 1951,
      "egli": 1952,
      "Ġdimentica": 1953,
      "Ġlimone": 1954,
      "Ġbic": 1955,
      "Ġlavica": 1956,
      "fica": 1957,
      "ĠbontÃł": 1958,
      "Ġassa": 1959,
      "Ġpiacere": 1960,
      "Ġness": 1961,
      "Ġrego": 1962,
      "Ġsoli": 1963,
      "Ġpranzo": 1964,
      "Ġtecn": 1965,
      "elefante": 1966,
      "Ġcompi": 1967,
      "scol": 1968,
      "uoi": 1969,
      "Ġpresto": 1970,
      "Ġpuli": 1971,
      "Ġpres": 1972,
      "Ġcriptoval": 1973,
      "Ġpano": 1974,
      "Ġpanora": 1975,
      "Ġsapo": 1976,
      "Ġdu": 1977,
      "Ġmotor": 1978,
      "Ġprendo": 1979,
      "Ġgeopolitica": 1980,
      "Ġblu": 1981,
      "Ġcriptovalute": 1982,
      "Ġragazzi": 1983,
      "unta": 1984,
      "Ġrinf": 1985,
      "tz": 1986,
      "Ġpiuttosto": 1987,
      "Ġforno": 1988,
      "Ġbirra": 1989,
      "Ġlegge": 1990,
      "Ġstanno": 1991,
      "Ġvolevo": 1992,
      "iotru": 1993,
      "Ġrespira": 1994,
      "Ġsf": 1995,
      "esame": 1996,
      "Ġbecca": 1997,
      "Ġpanorama": 1998,
      "Ġcao": 1999,
      "Ġfercolo": 2000,
      "essi": 2001,
      "Ġsch": 2002,
      "rlo": 2003,
      "tore": 2004,
      "Ġbuio": 2005,
      "Ġmovi": 2006,
      "Ġrinfre": 2007,
      "Ġpio": 2008,
      "Ġtipo": 2009,
      "Ġvor": 2010,
      "Ġsel": 2011,
      "ord": 2012,
      "ĠTra": 2013,
      "Ġvul": 2014,
      "Ġpoco": 2015,
      "Ġpezzo": 2016,
      "Ġbicchi": 2017,
      "Ġrocce": 2018,
      "st": 2019,
      "orto": 2020,
      "Ġsapere": 2021,
      "Ġcostru": 2022,
      "ĠPescheria": 2023,
      "viamo": 2024,
      "Ġbravo": 2025,
      "Ġtanti": 2026,
      "Ġsare": 2027,
      "Ġguerra": 2028,
      "anza": 2029,
      "Ġassicura": 2030,
      "Ġriso": 2031,
      "Ġgiocare": 2032,
      "Ġcorrettamente": 2033,
      "Ġlan": 2034,
      "Ġdocu": 2035,
      "ĠuÃ¨": 2036,
      "ĠAndiamo": 2037,
      "Ġpescare": 2038,
      "Ġfami": 2039,
      "Ġnero": 2040,
      "Ġsuccesso": 2041,
      "Ġchiacchiere": 2042,
      "Ġstrana": 2043,
      "Ġcambia": 2044,
      "Ġgiusto": 2045,
      "per": 2046,
      "Ġmesso": 2047,
      "Ġpane": 2048,
      "Ġimpar": 2049,
      "Ġtuppo": 2050,
      "Ġlingue": 2051,
      "Ġcorrere": 2052,
      "Ġtesoro": 2053,
      "Ġaspettare": 2054,
      "ttrici": 2055,
      "Ġterra": 2056,
      "Ġahahah": 2057,
      "Ġtorn": 2058,
      "Ġfamiglia": 2059,
      "ccu": 2060,
      "ĠCon": 2061,
      "tuo": 2062,
      "Ġgelato": 2063,
      "Ġvenuta": 2064,
      "Ġmotorino": 2065,
      "vole": 2066,
      "Ġbeccafico": 2067,
      "odore": 2068,
      "Ġbellini": 2069,
      "chiamo": 2070,
      "Ġchiedere": 2071,
      "rante": 2072,
      "ĠvelocitÃł": 2073,
      "Ġandato": 2074,
      "Ġparlano": 2075,
      "Ġmani": 2076,
      "Ġpaese": 2077,
      "Ġinvestire": 2078,
      "Ġeri": 2079,
      "rire": 2080,
      "Ġaccid": 2081,
      "Ġcarta": 2082,
      "Ġstudi": 2083,
      "Ġpista": 2084,
      "Ġagli": 2085,
      "ĠPro": 2086,
      "Ġvulcano": 2087,
      "tua": 2088,
      "elli": 2089,
      "ssata": 2090,
      "Ġtrovo": 2091,
      "gge": 2092,
      "cchiamo": 2093,
      "dendo": 2094,
      "ĠPa": 2095,
      "Ġbelli": 2096,
      "ĠPeppe": 2097,
      "Ġmed": 2098,
      "Ġcaos": 2099,
      "Ġaccidente": 2100,
      "Ġscher": 2101,
      "ĠNo": 2102,
      "Ġinfatti": 2103,
      "Ġgui": 2104,
      "Ġfosse": 2105,
      "ge": 2106,
      "Ġov": 2107,
      "Ġgrandi": 2108,
      "Ġresta": 2109,
      "ĠSenti": 2110,
      "Ġsti": 2111,
      "Ġseltz": 2112,
      "Ġmovimento": 2113,
      "Ġnell": 2114,
      "Ġintelligente": 2115,
      "Ġenorme": 2116,
      "ĠChi": 2117,
      "Ġtele": 2118,
      "Ġfigura": 2119,
      "Ġmutuo": 2120,
      "Ġpenso": 2121,
      "ĠQuella": 2122,
      "dando": 2123,
      "Ġcassata": 2124,
      "Ġriesco": 2125,
      "Ġscende": 2126,
      "Ġcalcio": 2127,
      "Ġragazza": 2128,
      "unico": 2129,
      "Ġtoglie": 2130,
      "Ġbecchiamo": 2131,
      "Ġluna": 2132,
      "ĠLiotru": 2133,
      "Ġparte": 2134,
      "Ġnonni": 2135,
      "Ġsbaglia": 2136,
      "olo": 2137,
      "len": 2138,
      "Ġsocia": 2139,
      "Ġbanca": 2140,
      "Ġintelligenza": 2141,
      "Ġperde": 2142,
      "ccato": 2143,
      "Ġspor": 2144,
      "Ġportato": 2145,
      "Ġdiventare": 2146,
      "Ġfatte": 2147,
      "arsi": 2148,
      "uistica": 2149,
      "Ġsegre": 2150,
      "Ġvivo": 2151,
      "Ġovunque": 2152,
      "ttura": 2153,
      "ĠBor": 2154,
      "ssione": 2155,
      "Ġstrani": 2156,
      "Ġmotore": 2157,
      "ellu": 2158,
      "bato": 2159,
      "Ġpiedi": 2160,
      "Ġpra": 2161,
      "ĠSto": 2162,
      "ite": 2163,
      "onda": 2164,
      "Ġvilla": 2165,
      "Ġcarri": 2166,
      "Ġgiusta": 2167,
      "Ġproc": 2168,
      "Ġascol": 2169,
      "Ġprendi": 2170,
      "Ġaddo": 2171,
      "Ġscirocco": 2172,
      "Ġlava": 2173,
      "ĠveritÃł": 2174,
      "mino": 2175,
      "Ġfinito": 2176,
      "Ġmontagna": 2177,
      "ĠTec": 2178,
      "Ġbatte": 2179,
      "Ġdieta": 2180,
      "Ġquest": 2181,
      "Ġcalde": 2182,
      "Ġsenso": 2183,
      "Ġdetto": 2184,
      "Ġtavola": 2185,
      "cen": 2186,
      "Ġprogramma": 2187,
      "Ġparlavamo": 2188,
      "ĠEcco": 2189,
      "Ġpall": 2190,
      "Ġstatistica": 2191,
      "Ġvico": 2192,
      "Ġnord": 2193,
      "Ġvengono": 2194,
      "evi": 2195,
      "Ġcapisce": 2196,
      "Ġanni": 2197,
      "ĠTecla": 2198,
      "Ġmetti": 2199,
      "Ġcerco": 2200,
      "Ġgrazie": 2201,
      "Ġtecno": 2202,
      "onastero": 2203,
      "Ġamore": 2204,
      "Ġnuovi": 2205,
      "inte": 2206,
      "ppi": 2207,
      "esia": 2208,
      "Ġcomplicata": 2209,
      "Ġborgo": 2210,
      "Ġpun": 2211,
      "Ġdocumenti": 2212,
      "Ġcolori": 2213,
      "cchia": 2214,
      "ĠBorgo": 2215,
      "Ġcolazione": 2216,
      "Ġvola": 2217,
      "Ġnuota": 2218,
      "Ġpoesia": 2219,
      "Ġnei": 2220,
      "Ġfritte": 2221,
      "ĠUrsino": 2222,
      "ĠStazzo": 2223,
      "arda": 2224,
      "Ġcellu": 2225,
      "Ġdisc": 2226,
      "llina": 2227,
      "Ġmappe": 2228,
      "Ġbocca": 2229,
      "Ġvicoli": 2230,
      "Ġminne": 2231,
      "Ġpazzo": 2232,
      "Ġbanche": 2233,
      "Ġnessuno": 2234,
      "ghi": 2235,
      "tmosf": 2236,
      "Ġfoto": 2237,
      "ĠGrazie": 2238,
      "nza": 2239,
      "Ġformu": 2240,
      "Ġstava": 2241,
      "Ġsapore": 2242,
      "Ġcomplicati": 2243,
      "ĠAl": 2244,
      "Ġcrocc": 2245,
      "Ġintegra": 2246,
      "lino": 2247,
      "Ġtorna": 2248,
      "Ġbuone": 2249,
      "Ġgel": 2250,
      "Ġcerc": 2251,
      "essione": 2252,
      "Ġspiegami": 2253,
      "Ġimparare": 2254,
      "uro": 2255,
      "Ġsorriso": 2256,
      "Ġsfi": 2257,
      "ttini": 2258,
      "Ġfunzion": 2259,
      "Ġsicilia": 2260,
      "Ġpassare": 2261,
      "Ġdiscoteca": 2262,
      "Ġmira": 2263,
      "mana": 2264,
      "ĠPiuttosto": 2265,
      "sola": 2266,
      "ĠGu": 2267,
      "ifi": 2268,
      "Ġsocial": 2269,
      "Ġmangiarci": 2270,
      "ffi": 2271,
      "Ġtranquilli": 2272,
      "Ġdirettamente": 2273,
      "Ġcrisp": 2274,
      "Ġiniziare": 2275,
      "Ġvive": 2276,
      "Ġrilassiamo": 2277,
      "remo": 2278,
      "Ġcand": 2279,
      "Ġdalle": 2280,
      "Ġghia": 2281,
      "Ġconosce": 2282,
      "Ġfranc": 2283,
      "Ġpiccoli": 2284,
      "Ġtrovarmi": 2285,
      "Ġbicchiere": 2286,
      "Ġcrispelle": 2287,
      "Ġregole": 2288,
      "Ġcannolo": 2289,
      "lore": 2290,
      "turo": 2291,
      "uni": 2292,
      "Ġtira": 2293,
      "Ġwifi": 2294,
      "Ġpistacchio": 2295,
      "Ġbuttato": 2296,
      "rne": 2297,
      "Ġten": 2298,
      "Ġresto": 2299,
      "ĠSÃ¬": 2300,
      "tanese": 2301,
      "sia": 2302,
      "Ġlibro": 2303,
      "ddi": 2304,
      "Ġdormi": 2305,
      "lligenza": 2306,
      "Ġrossa": 2307,
      "Ġpomeri": 2308,
      "Ġvorrei": 2309,
      "Ġbal": 2310,
      "Ġcala": 2311,
      "Ġcerchiamo": 2312,
      "ĠQuando": 2313,
      "ho": 2314,
      "Ġmar": 2315,
      "Ġfuturo": 2316,
      "Ġmagico": 2317,
      "Ġragazze": 2318,
      "Ġfavo": 2319,
      "Ġlinguistica": 2320,
      "Ġcipollina": 2321,
      "Ġvinto": 2322,
      "Ġgesti": 2323,
      "Ġstiamo": 2324,
      "grafia": 2325,
      "Ġvere": 2326,
      "Ġgiovanni": 2327,
      "ble": 2328,
      "Ġfavore": 2329,
      "onomia": 2330,
      "ĠSa": 2331,
      "Ġcerv": 2332,
      "ĠGuarda": 2333,
      "Ġsaprebbe": 2334,
      "Ġdiverte": 2335,
      "esto": 2336,
      "ĠBu": 2337,
      "Ġnuvole": 2338,
      "Ġassaggiare": 2339,
      "icuro": 2340,
      "Ġgodu": 2341,
      "Ġfogli": 2342,
      "Ġentra": 2343,
      "doro": 2344,
      "Ġmor": 2345,
      "mmatica": 2346,
      "Ġportava": 2347,
      "nti": 2348,
      "Ġahah": 2349,
      "Ġpeccato": 2350,
      "Ġfatica": 2351,
      "Ġsua": 2352,
      "ĠFa": 2353,
      "ĠdÃł": 2354,
      "Ġpersone": 2355,
      "Ġpensando": 2356,
      "Ġdecidere": 2357,
      "Ġrima": 2358,
      "Ġluci": 2359,
      "Ġmusco": 2360,
      "Ġzu": 2361,
      "Ġbarche": 2362,
      "Ġmodo": 2363,
      "Ġmettere": 2364,
      "ĠEccomi": 2365,
      "Ġcade": 2366,
      "Ġchiamiamo": 2367,
      "dettini": 2368,
      "tato": 2369,
      "onata": 2370,
      "Ġdispia": 2371,
      "Ġpieno": 2372,
      "Ġprenderci": 2373,
      "gina": 2374,
      "Ġintere": 2375,
      "ssolu": 2376,
      "Ġdispiace": 2377,
      "Ġaspetto": 2378,
      "Ġpassione": 2379,
      "Ġscrivere": 2380,
      "Ġcontro": 2381,
      "stru": 2382,
      "Ġmone": 2383,
      "Ġragazzo": 2384,
      "Ġmondia": 2385,
      "Ġproble": 2386,
      "ĠSiamo": 2387,
      "Ġcoding": 2388,
      "Ġbrezza": 2389,
      "Ġtroviamo": 2390,
      "Ġloro": 2391,
      "Ġintegratori": 2392,
      "Ġfaci": 2393,
      "Ġavuto": 2394,
      "Ġcapitale": 2395,
      "Ġchiuso": 2396,
      "Ġvecchi": 2397,
      "Ġtattiche": 2398,
      "Ġassicurazioni": 2399,
      "Ġaver": 2400,
      "Ġterremo": 2401,
      "Ġcodici": 2402,
      "Ġcalma": 2403,
      "dano": 2404,
      "Ġassolu": 2405,
      "Ġpressione": 2406,
      "Ġprofessore": 2407,
      "Ġlancia": 2408,
      "Ġpomeriggio": 2409,
      "Ġnuove": 2410,
      "Ġrespirare": 2411,
      "Ġprogrammazione": 2412,
      "inc": 2413,
      "melo": 2414,
      "Ġvivere": 2415,
      "Ġpreciso": 2416,
      "Ġforse": 2417,
      "nic": 2418,
      "rle": 2419,
      "Ġpuoi": 2420,
      "sitÃł": 2421,
      "Ġgodi": 2422,
      "arla": 2423,
      "Ġuomo": 2424,
      "anzia": 2425,
      "Ġscacciata": 2426,
      "Ġrimette": 2427,
      "Ġnoti": 2428,
      "Ġrossazzur": 2429,
      "mpag": 2430,
      "ĠAnche": 2431,
      "Ġpresento": 2432,
      "Ġtuoi": 2433,
      "Ġparol": 2434,
      "Ġusare": 2435,
      "Ġmiracolo": 2436,
      "Ġassurdo": 2437,
      "Ġvale": 2438,
      "lavo": 2439,
      "Ġscop": 2440,
      "icina": 2441,
      "Ġinsegna": 2442,
      "Ġpiena": 2443,
      "Ġbrucia": 2444,
      "Ġtornare": 2445,
      "Ġprende": 2446,
      "gnifica": 2447,
      "Ġpratica": 2448,
      "Ġcuti": 2449,
      "Ġgrammatica": 2450,
      "Ġmonastero": 2451,
      "Ġsegreto": 2452,
      "Ġcio": 2453,
      "Ġsalata": 2454,
      "Ġpale": 2455,
      "Ġsabato": 2456,
      "Ġnuotata": 2457,
      "Ġmangiano": 2458,
      "Ġalleg": 2459,
      "Ġcaponata": 2460,
      "Ġmuscoli": 2461,
      "Ġspesso": 2462,
      "mba": 2463,
      "ĠNorma": 2464,
      "ĠfelicitÃł": 2465,
      "ggiamo": 2466,
      "Ġpallone": 2467,
      "Ġarrivano": 2468,
      "ĠEh": 2469,
      "Ġaiuta": 2470,
      "Ġsarebbe": 2471,
      "Ġcontin": 2472,
      "Ġportano": 2473,
      "Ġtempi": 2474,
      "Ġdurante": 2475,
      "Ġzucch": 2476,
      "Ġpalestra": 2477,
      "Ġmonete": 2478,
      "Ġnatura": 2479,
      "Ġvivi": 2480,
      "ĠDomani": 2481,
      "Ġconto": 2482,
      "Ġquali": 2483,
      "Ġpala": 2484,
      "Ġstrade": 2485,
      "Ġoff": 2486,
      "Ġarrivato": 2487,
      "ĠQueste": 2488,
      "Ġacireale": 2489,
      "intelligenza": 2490,
      "schi": 2491,
      "Ġricetta": 2492,
      "ombra": 2493,
      "migia": 2494,
      "Ġgodermi": 2495,
      "ng": 2496,
      "ĠSei": 2497,
      "Ġmangio": 2498,
      "Ġbuttando": 2499,
      "messo": 2500,
      "Ġparmigia": 2501,
      "Ġcarto": 2502,
      "Ġpote": 2503,
      "ĠHo": 2504,
      "rai": 2505,
      "Ġscia": 2506,
      "Ġzucchero": 2507,
      "Ġcompiti": 2508,
      "Ġfunzionano": 2509,
      "Ġspo": 2510,
      "ze": 2511,
      "Ġparmigiana": 2512,
      "Ġvenuto": 2513,
      "Ġgioi": 2514,
      "Ġfru": 2515,
      "Ġscio": 2516,
      "Ġspiegare": 2517,
      "mpagnata": 2518,
      "Ġviaggi": 2519,
      "anta": 2520,
      "Ġlasci": 2521,
      "Ġcibo": 2522,
      "ĠlÃł": 2523,
      "Ġbianco": 2524,
      "Ġaff": 2525,
      "log": 2526,
      "Ġsalto": 2527,
      "Ġlavor": 2528,
      "Ġseduto": 2529,
      "Ġfacile": 2530,
      "atro": 2531,
      "Ġcla": 2532,
      "Ġfamo": 2533,
      "Ġfesteggiamo": 2534,
      "Ġtuffa": 2535,
      "Ġfossi": 2536,
      "raggio": 2537,
      "Ġmondiale": 2538,
      "Ġfermo": 2539,
      "Ġcandelo": 2540,
      "Ġbellissimi": 2541,
      "Ġassurda": 2542,
      "Ġstessa": 2543,
      "occu": 2544,
      "Ġcercava": 2545,
      "Ġtrovarci": 2546,
      "Ġsacra": 2547,
      "Ġvoce": 2548,
      "tiche": 2549,
      "Ġdoman": 2550,
      "Ġpreoccu": 2551,
      "azione": 2552,
      "ssicura": 2553,
      "Ġoro": 2554,
      "Ġscampagnata": 2555,
      "Ġbrilla": 2556,
      "ĠSal": 2557,
      "Ġpromozione": 2558,
      "Ġaccompagno": 2559,
      "Ġesperto": 2560,
      "Ġcompari": 2561,
      "inglese": 2562,
      "Ġsiete": 2563,
      "Ġdritti": 2564,
      "gÃ¹": 2565,
      "Ġspacca": 2566,
      "Ġpassiamo": 2567,
      "ĠPure": 2568,
      "Ġvoi": 2569,
      "dini": 2570,
      "Ġtattica": 2571,
      "sticc": 2572,
      "vina": 2573,
      "ĠragÃ¹": 2574,
      "Ġbomba": 2575,
      "Ġterremoto": 2576,
      "tamente": 2577,
      "Ġtavo": 2578,
      "ĠBuon": 2579,
      "Ġaveva": 2580,
      "Ġocchi": 2581,
      "ĠBuongiorno": 2582,
      "Ġcamminare": 2583,
      "Ġscarto": 2584,
      "ĠQuello": 2585,
      "pera": 2586,
      "Ġprocessione": 2587,
      "vita": 2588,
      "Ġsentiamo": 2589,
      "Ġaccendo": 2590,
      "Ġcoraggio": 2591,
      "ssÃ¹": 2592,
      "Ġscartoffi": 2593,
      "Ġaiute": 2594,
      "Ġ1": 2595,
      "Ġoli": 2596,
      "Ġcartocciata": 2597,
      "Ġveramente": 2598,
      "Ġracconti": 2599,
      "untagna": 2600,
      "Ġdivertiamo": 2601,
      "Ġaiuteresti": 2602,
      "onte": 2603,
      "Ġragu": 2604,
      "ĠlassÃ¹": 2605,
      "Ġesci": 2606,
      "Ġcomple": 2607,
      "Ġstre": 2608,
      "Ġscordar": 2609,
      "rale": 2610,
      "Ġlatte": 2611,
      "Ġtradu": 2612,
      "Ġcammina": 2613,
      "Ġolive": 2614,
      "Ġlontano": 2615,
      "Ġpasso": 2616,
      "Ġpazzesca": 2617,
      "Ġsola": 2618,
      "Ġpreparando": 2619,
      "Ġscartoffie": 2620,
      "Ġtroppi": 2621,
      "Ġtaormina": 2622,
      "ĠDimmi": 2623,
      "vale": 2624,
      "Ġcir": 2625,
      "Ġpassavo": 2626,
      "Ġcalmo": 2627,
      "ito": 2628,
      "Ġsistema": 2629,
      "ĠMan": 2630,
      "Ġnavi": 2631,
      "Ġteatro": 2632,
      "Ġriu": 2633,
      "Ġgabbia": 2634,
      "Ġsassi": 2635,
      "Ġcatanese": 2636,
      "Ġingegneria": 2637,
      "ergia": 2638,
      "Ġsugli": 2639,
      "Ġlavori": 2640,
      "Ġplebiscito": 2641,
      "nta": 2642,
      "Ġsalsa": 2643,
      "Ġbuongiorno": 2644,
      "Ġesi": 2645,
      "Ġmanca": 2646,
      "Ġvecchio": 2647,
      "scopo": 2648,
      "Ġmoder": 2649,
      "Ġparlando": 2650,
      "lm": 2651,
      "Ġcapitali": 2652,
      "Ġstrano": 2653,
      "ufficio": 2654,
      "Ġcanta": 2655,
      "Ġmac": 2656,
      "visi": 2657,
      "Ġbanchi": 2658,
      "Ġsempl": 2659,
      "Ġstorta": 2660,
      "Ġalb": 2661,
      "Ġstudiato": 2662,
      "darlo": 2663,
      "Ġdegli": 2664,
      "Ġcaldi": 2665,
      "Ġrina": 2666,
      "Ġspeci": 2667,
      "Ġmedicina": 2668,
      "Ġfe": 2669,
      "cola": 2670,
      "ĠChie": 2671,
      "Ġrossazzurri": 2672,
      "Ġcercavo": 2673,
      "Ġsapresti": 2674,
      "Ġtranquilla": 2675,
      "chea": 2676,
      "Ġfolla": 2677,
      "Ġorganizza": 2678,
      "Ġpronta": 2679,
      "Ġpolitica": 2680,
      "bba": 2681,
      "Ġscritto": 2682,
      "Ġcomplimenti": 2683,
      "Ġursino": 2684,
      "Ġbenedettini": 2685,
      "ĠMagari": 2686,
      "Ġdiventato": 2687,
      "Ġseppia": 2688,
      "Ġelettrici": 2689,
      "Ġfrutta": 2690,
      "Ġcandelore": 2691,
      "ĠSigno": 2692,
      "ssimino": 2693,
      "Ġatmosf": 2694,
      "Ġgro": 2695,
      "Ġbamb": 2696,
      "Ġaccende": 2697,
      "rna": 2698,
      "Ġmodu": 2699,
      "Ġguardando": 2700,
      "Ġsimb": 2701,
      "Ġproteine": 2702,
      "Ġaccendere": 2703,
      "sticceria": 2704,
      "tanto": 2705,
      "lti": 2706,
      "ĠVeri": 2707,
      "Ġcercando": 2708,
      "Ġsiracusa": 2709,
      "Ġcervello": 2710,
      "Ġpomo": 2711,
      "ĠTo": 2712,
      "Ġcin": 2713,
      "Ġveder": 2714,
      "ĠSignora": 2715,
      "nich": 2716,
      "onia": 2717,
      "Ġetnea": 2718,
      "Ġpennich": 2719,
      "ĠHai": 2720,
      "Ġpennichella": 2721,
      "enere": 2722,
      "Ġgoderti": 2723,
      "str": 2724,
      "Ġsuo": 2725,
      "Ġcalore": 2726,
      "Ġfammi": 2727,
      "Ġbuttandomi": 2728,
      "Ġrobba": 2729,
      "Ġconosci": 2730,
      "ĠRoba": 2731,
      "ttore": 2732,
      "Ġfera": 2733,
      "Ġscegli": 2734,
      "gita": 2735,
      "Ġcampi": 2736,
      "Ġparoloni": 2737,
      "ddisf": 2738,
      "rro": 2739,
      "dino": 2740,
      "Ġcapo": 2741,
      "Ġpesanti": 2742,
      "Ġgoduria": 2743,
      "anda": 2744,
      "Ġsoddisf": 2745,
      "Ġpiove": 2746,
      "Ġdif": 2747,
      "Ġpagare": 2748,
      "Ġrete": 2749,
      "ombre": 2750,
      "darci": 2751,
      "ĠAd": 2752,
      "Ġpreparato": 2753,
      "Ġarrivare": 2754,
      "Ġpena": 2755,
      "Ġreti": 2756,
      "vendo": 2757,
      "Ġschi": 2758,
      "Ġviaggio": 2759,
      "Ġpovero": 2760,
      "nde": 2761,
      "Ġstudio": 2762,
      "Ġsimbolo": 2763,
      "vitÃł": 2764,
      "Ġconsiglio": 2765,
      "ghe": 2766,
      "Ġduomo": 2767,
      "Ġcontra": 2768,
      "Ġalberi": 2769,
      "Ġquegli": 2770,
      "scio": 2771,
      "Ġchiamano": 2772,
      "Ġlavorare": 2773,
      "Ġscoppia": 2774,
      "Ġpalla": 2775,
      "Ġpronto": 2776,
      "erica": 2777,
      "oroscopo": 2778,
      "Ġstru": 2779,
      "luzione": 2780,
      "imp": 2781,
      "ttadini": 2782,
      "rin": 2783,
      "Ġvecchia": 2784,
      "'.": 2785,
      "Ġsolito": 2786,
      "ĠProprio": 2787,
      "Ġscu": 2788,
      "Ġdormire": 2789,
      "enda": 2790,
      "estero": 2791,
      "Ġpiano": 2792,
      "lio": 2793,
      "tile": 2794,
      "Ġsicuro": 2795,
      "'?": 2796,
      "Ġgabbiano": 2797,
      "Ġimma": 2798,
      "Ġarra": 2799,
      "Ġvoti": 2800,
      "Ġpalazzi": 2801,
      "Ġolivette": 2802,
      "Ġstup": 2803,
      "Ġsitua": 2804,
      "llone": 2805,
      "idea": 2806,
      "etti": 2807,
      "Ġnere": 2808,
      "doni": 2809,
      "tÃ²": 2810,
      "Ġneri": 2811,
      "Ġvanno": 2812,
      "Ġrea": 2813,
      "Ġsoddisfazione": 2814,
      "Ġinvestimenti": 2815,
      "Ġgioca": 2816,
      "Ġcomprare": 2817,
      "Ġsegni": 2818,
      "ĠFor": 2819,
      "Ġriusci": 2820,
      "Ġpaesi": 2821,
      "ĠVer": 2822,
      "ttono": 2823,
      "Ġriesci": 2824,
      "Ġecco": 2825,
      "Ġridevamo": 2826,
      "cere": 2827,
      "Ġcellule": 2828,
      "univer": 2829,
      "ĠErano": 2830,
      "uale": 2831,
      "Ġscegliere": 2832,
      "Ġsituazione": 2833,
      "Ġgua": 2834,
      "erare": 2835,
      "Ġcaric": 2836,
      "Ġricorda": 2837,
      "Ġrisol": 2838,
      "Ġpersona": 2839,
      "Ġallegria": 2840,
      "Ġsape": 2841,
      "Ġcrociere": 2842,
      "erci": 2843,
      "Ġsemu": 2844,
      "Ġnum": 2845,
      "ĠFaraglioni": 2846,
      "mpo": 2847,
      "Ġsegno": 2848,
      "Ġpomodoro": 2849,
      "Ġtremare": 2850,
      "ĠCiccio": 2851,
      "Ġpreparare": 2852,
      "Ġrimasti": 2853,
      "ĠZ": 2854,
      "Ġpiatti": 2855,
      "Ġgeo": 2856,
      "Ġcorrente": 2857,
      "infanzia": 2858,
      "Ġfio": 2859,
      "Ġinca": 2860,
      "Ġesiste": 2861,
      "ttino": 2862,
      "Ġscusi": 2863,
      "Ġmemo": 2864,
      "Ġmancano": 2865,
      "Ġproblemi": 2866,
      "Ġalto": 2867,
      "Ġletto": 2868,
      "lta": 2869,
      "Ġmiele": 2870,
      "Ġvenite": 2871,
      "ĠMuntagna": 2872,
      "Ġfinire": 2873,
      "bilitÃł": 2874,
      "dine": 2875,
      "mmo": 2876,
      "Ġcordoni": 2877,
      "Ġandavamo": 2878,
      "gnare": 2879,
      "Ġcrociera": 2880,
      "Ġgru": 2881,
      "Ġprog": 2882,
      "ĠComun": 2883,
      "Ġrifle": 2884,
      "ssare": 2885,
      "ĠComunque": 2886,
      "Ġnomi": 2887,
      "Ġbrivi": 2888,
      "ĠEro": 2889,
      "Ġterm": 2890,
      "cci": 2891,
      "Ġritro": 2892,
      "ĠDevi": 2893,
      "Ġorganizzare": 2894,
      "Ġcomanda": 2895,
      "Ġdritta": 2896,
      "ulti": 2897,
      "cole": 2898,
      "ĠSemp": 2899,
      "ĠTotÃ²": 2900,
      "Ġscotta": 2901,
      "Ġarro": 2902,
      "Ġsignore": 2903,
      "Ġmemoria": 2904,
      "Ġdistru": 2905,
      "Ġrivo": 2906,
      "Ġguardi": 2907,
      "Ġspen": 2908,
      "Ġcolore": 2909,
      "Ġregina": 2910,
      "Ġvengo": 2911,
      "Ġlascio": 2912,
      "Ġconcen": 2913,
      "Ġgirano": 2914,
      "emo": 2915,
      "nni": 2916,
      "Ġpesante": 2917,
      "Ġcroccanti": 2918,
      "Ġnumero": 2919,
      "bali": 2920,
      "Ġsaper": 2921,
      "Ġformula": 2922,
      "Ġarrivo": 2923,
      "Ġseduti": 2924,
      "Ġmelanzana": 2925,
      "Ġcura": 2926,
      "Ġuscito": 2927,
      "ingegneria": 2928,
      "mio": 2929,
      "Ġmalinc": 2930,
      "Ġpazzesco": 2931,
      "pre": 2932,
      "Ġpiane": 2933,
      "Ġridendo": 2934,
      "Ġportare": 2935,
      "gola": 2936,
      "ĠVerissimo": 2937,
      "Ġscordarlo": 2938,
      "ccare": 2939,
      "Ġsilen": 2940,
      "ĠGe": 2941,
      "Ġcic": 2942,
      "gliamo": 2943,
      "ttimo": 2944,
      "lissimo": 2945,
      "Ġsvegliato": 2946,
      "Ġburro": 2947,
      "Ġpiang": 2948,
      "Ġama": 2949,
      "ĠRosa": 2950,
      "porto": 2951,
      "Ġabbra": 2952,
      "alle": 2953,
      "Ġenergia": 2954,
      "Ġacitrezza": 2955,
      "Ġpezzi": 2956,
      "essa": 2957,
      "Ġmete": 2958,
      "Ġantica": 2959,
      "Ġsplen": 2960,
      "ĠMassimino": 2961,
      "Ġtecnologia": 2962,
      "Ġner": 2963,
      "Ġlavora": 2964,
      "Ġesplo": 2965,
      "Ġsilenzio": 2966,
      "rÃł": 2967,
      "ombrellone": 2968,
      "Ġgia": 2969,
      "Ġspecie": 2970,
      "Ġgruppo": 2971,
      "Ġaddosso": 2972,
      "ĠFi": 2973,
      "Ġpiangere": 2974,
      "Ġimpeg": 2975,
      "stronomia": 2976,
      "Ġfiori": 2977,
      "Ġcanz": 2978,
      "Ġrisata": 2979,
      "Ġfritta": 2980,
      "Ġpelle": 2981,
      "Ġabba": 2982,
      "Ġfra": 2983,
      "Ġfuma": 2984,
      "Ġminni": 2985,
      "Ġcorpo": 2986,
      "Ġfumo": 2987,
      "Ġognina": 2988,
      "Ġcorso": 2989,
      "Ġtantissimo": 2990,
      "Ġsfida": 2991,
      "Ġsiciliane": 2992,
      "lavoglia": 2993,
      "ĠSu": 2994,
      "Ġrosticceria": 2995,
      "inita": 2996,
      "Ġson": 2997,
      "une": 2998,
      "Ġaddor": 2999,
      "inci": 3000,
      "cche": 3001,
      "Ġorganizziamo": 3002,
      "Ġscorso": 3003,
      "Ġtirato": 3004,
      "Ġprimo": 3005,
      "Ġmalinconia": 3006,
      "Ġscienza": 3007,
      "Ġtradi": 3008,
      "Ġqualc": 3009,
      "Ġinfinita": 3010,
      "Ġavevamo": 3011,
      "Ġru": 3012,
      "Ġtecnico": 3013,
      "Ġalta": 3014,
      "ett": 3015,
      "Ġmamma": 3016,
      "solino": 3017,
      "Ġvesti": 3018,
      "Ġbeviamo": 3019,
      "Ġarrivi": 3020,
      "Ġpisolino": 3021,
      "Ġdivina": 3022,
      "Ġfuochi": 3023,
      "Ġscordarmelo": 3024,
      "Ġviaggiare": 3025,
      "tono": 3026,
      "Ġsicura": 3027,
      "Ġdare": 3028,
      "Ġrin": 3029,
      "ppare": 3030,
      "Ġinflu": 3031,
      "Ġpareva": 3032,
      "Ġpescio": 3033,
      "Ġtuffarmi": 3034,
      "Ġstoriche": 3035,
      "Ġbona": 3036,
      "Ġsemplice": 3037,
      "Ġintanto": 3038,
      "Ġcompagno": 3039,
      "pesta": 3040,
      "ĠPorta": 3041,
      "Ġspesa": 3042,
      "Ġfiniti": 3043,
      "rono": 3044,
      "Ġliti": 3045,
      "Ġcivi": 3046,
      "Ġguardiamo": 3047,
      "Ġaiuto": 3048,
      "tando": 3049,
      "Ġsac": 3050,
      "Ġtelef": 3051,
      "Ġcartapesta": 3052,
      "tigia": 3053,
      "ssimi": 3054,
      "mmare": 3055,
      "Ġstanchi": 3056,
      "ipo": 3057,
      "Ġmazza": 3058,
      "Ġlunghi": 3059,
      "Ġascoltare": 3060,
      "Ġdevono": 3061,
      "scere": 3062,
      "Ġumana": 3063,
      "ĠGeopolitica": 3064,
      "Ġtizio": 3065,
      "Ġbellissime": 3066,
      "Ġossa": 3067,
      "schio": 3068,
      "Ġgiri": 3069,
      "Ġfesteggia": 3070,
      "rli": 3071,
      "Ġfondo": 3072,
      "ssime": 3073,
      "Ġpensiero": 3074,
      "isola": 3075,
      "Ġmecc": 3076,
      "Ġripo": 3077,
      "Ġchiesa": 3078,
      "Ġsang": 3079,
      "Ġfrancese": 3080,
      "dati": 3081,
      "rre": 3082,
      "Ġquestione": 3083,
      "Ġcenere": 3084,
      "Ġluni": 3085,
      "Ġfuor": 3086,
      "Ġsuper": 3087,
      "Ġsaltare": 3088,
      "Ġcane": 3089,
      "Ġtrenta": 3090,
      "Ġtimpa": 3091,
      "elettrici": 3092,
      "llia": 3093,
      "Ġturi": 3094,
      "gnor": 3095,
      "Ġghiacciata": 3096,
      "esse": 3097,
      "Ġsangue": 3098,
      "elettricitÃł": 3099,
      "Ġfrega": 3100,
      "Ġnostri": 3101,
      "Ġfredda": 3102,
      "menta": 3103,
      "Ġcerchi": 3104,
      "Ġfilm": 3105,
      "Ġservi": 3106,
      "Ġmangiata": 3107,
      "Ġspazia": 3108,
      "Ġripi": 3109,
      "Ġrega": 3110,
      "Ġpanino": 3111,
      "Ġnotizia": 3112,
      "Ġsegna": 3113,
      "Ġandarci": 3114,
      "Ġsegu": 3115,
      "Ġprogetto": 3116,
      "onale": 3117,
      "Ġsalta": 3118,
      "crazia": 3119,
      "Ġmesti": 3120,
      "Ġmagica": 3121,
      "Ġpotre": 3122,
      "Ġtroppa": 3123,
      "ĠVerga": 3124,
      "Ġpresi": 3125,
      "ĠPerchÃ©": 3126,
      "Ġpescatore": 3127,
      "Ġgioiello": 3128,
      "Ġim": 3129,
      "Ġsentirti": 3130,
      "Ġsistemare": 3131,
      "ĠAbbiamo": 3132,
      "Ġrosso": 3133,
      "Ġvoleva": 3134,
      "tici": 3135,
      "Ġlachea": 3136,
      "Ġaperta": 3137,
      "Ġburo": 3138,
      "Ġcomo": 3139,
      "Ġusa": 3140,
      "Ġqualcuno": 3141,
      "Ġdiri": 3142,
      "Ġdata": 3143,
      "tola": 3144,
      "Ġleggo": 3145,
      "Ġdolcezza": 3146,
      "Ġquanta": 3147,
      "Ġfigurati": 3148,
      "ttiato": 3149,
      "cati": 3150,
      "Ġcinque": 3151,
      "Ġforti": 3152,
      "Ġrivoluzione": 3153,
      "gie": 3154,
      "Ġcann": 3155,
      "Ġgestire": 3156,
      "Ġrinno": 3157,
      "Ġcontinua": 3158,
      "ondi": 3159,
      "Ġfermiamo": 3160,
      "ĠBa": 3161,
      "Ġmeccan": 3162,
      "Ġrispetto": 3163,
      "Ġfaresti": 3164,
      "Ġeuro": 3165,
      "Ġpag": 3166,
      "natomia": 3167,
      "Ġnipo": 3168,
      "Ġsanno": 3169,
      "Ġformule": 3170,
      "ĠAdesso": 3171,
      "Ġsmette": 3172,
      "Ġpoli": 3173,
      "rdino": 3174,
      "Ġscivola": 3175,
      "Ġsciare": 3176,
      "ĠForse": 3177,
      "Ġpescivendo": 3178,
      "Ġdigita": 3179,
      "Ġcadere": 3180,
      "Ġveni": 3181,
      "Ġpicci": 3182,
      "Ġscherza": 3183,
      "Ġdagli": 3184,
      "Ġschifo": 3185,
      "ĠSempre": 3186,
      "Ġarrabbia": 3187,
      "Ġstruttura": 3188,
      "more": 3189,
      "Ġmorale": 3190,
      "Ġortigia": 3191,
      "Ġbuttava": 3192,
      "Ġquarti": 3193,
      "Ġsetti": 3194,
      "Ġdomande": 3195,
      "Ġcivile": 3196,
      "Ġragazz": 3197,
      "Ġgranite": 3198,
      "Ġgusto": 3199,
      "Ġprogrammare": 3200,
      "orso": 3201,
      "Ġstesso": 3202,
      "Ġspiegarmi": 3203,
      "Ġstress": 3204,
      "chia": 3205,
      "cone": 3206,
      "ĠgravitÃł": 3207,
      "Ġcercavamo": 3208,
      "ĠcioÃ¨": 3209,
      "Ġatte": 3210,
      "Ġpieni": 3211,
      "Ġmangiavamo": 3212,
      "Ġquartiere": 3213,
      "ĠCar": 3214,
      "Ġproba": 3215,
      "Ġuffici": 3216,
      "Ġriesce": 3217,
      "Ġani": 3218,
      "Ġurlare": 3219,
      "Ġsiedo": 3220,
      "Ġbr": 3221,
      "Ġfate": 3222,
      "Ġbianca": 3223,
      "Ġridiamo": 3224,
      "tui": 3225,
      "Ġdiale": 3226,
      "Ġgelso": 3227,
      "Ġfrancia": 3228,
      "Ġpianeti": 3229,
      "Ġpicciri": 3230,
      "ardo": 3231,
      "Ġulti": 3232,
      "Ġfreschissimo": 3233,
      "ĠChiedi": 3234,
      "Ġ'": 3235,
      "Ġpremio": 3236,
      "Ġcannoli": 3237,
      "Ġcroccante": 3238,
      "Ġcarica": 3239,
      "ĠStamattina": 3240,
      "Ġfiniva": 3241,
      "Ġscala": 3242,
      "Ġorma": 3243,
      "ntesi": 3244,
      "Ġurlano": 3245,
      "Ġrilassi": 3246,
      "Ġmorbi": 3247,
      "Ġormai": 3248,
      "Ġcima": 3249,
      "Ġsignifica": 3250,
      "Ġraccontami": 3251,
      "edÃ¬": 3252,
      "ssicurazione": 3253,
      "Ġfissare": 3254,
      "ĠRi": 3255,
      "Ġsettimana": 3256,
      "Ġtifo": 3257,
      "erato": 3258,
      "Ġstazzo": 3259,
      "ĠLÃ¬": 3260,
      "Ġaspettando": 3261,
      "Ġdivertiti": 3262,
      "sintesi": 3263,
      "Ġstrate": 3264,
      "Ġfinita": 3265,
      "Ġnato": 3266,
      "Ġseguo": 3267,
      "Ġcorsa": 3268,
      "icolo": 3269,
      "Ġsli": 3270,
      "Ġlasciar": 3271,
      "Ġinteressa": 3272,
      "rata": 3273,
      "Ġgioco": 3274,
      "Ġdicevi": 3275,
      "lgia": 3276,
      "Ġpozzillo": 3277,
      "Ġlimpi": 3278,
      "Ġscappare": 3279,
      "Ġmacello": 3280,
      "ulini": 3281,
      "Ġcampo": 3282,
      "siasi": 3283,
      "riamo": 3284,
      "Ġrela": 3285,
      "ppure": 3286,
      "erÃł": 3287,
      "Ġumano": 3288,
      "Ġqualsiasi": 3289,
      "Ġsegnale": 3290,
      "ienza": 3291,
      "Ġgiorni": 3292,
      "Ġserate": 3293,
      "ĠCro": 3294,
      "triamo": 3295,
      "Ġsoff": 3296,
      "Ġcarnevale": 3297,
      "Ġcredo": 3298,
      "Ġristo": 3299,
      "Ġfanta": 3300,
      "ĠQuesta": 3301,
      "Ġlinguaggio": 3302,
      "ndi": 3303,
      "Ġinvestimento": 3304,
      "Ġfotosintesi": 3305,
      "arte": 3306,
      "scopi": 3307,
      "Ġbaro": 3308,
      "Ġcostruire": 3309,
      "Ġspos": 3310,
      "Ġau": 3311,
      "Ġtirano": 3312,
      "dici": 3313,
      "rati": 3314,
      "Ġincia": 3315,
      "Ġcomune": 3316,
      "Ġnosta": 3317,
      "Ġmaria": 3318,
      "Ġcittadini": 3319,
      "Ġascolta": 3320,
      "Ġsicuramente": 3321,
      "Ġmuover": 3322,
      "Ġcuo": 3323,
      "Ġnormale": 3324,
      "Ġpreoccup": 3325,
      "ffa": 3326,
      "Ġfigata": 3327,
      "Ġord": 3328,
      "Ġburocrazia": 3329,
      "Ġmasc": 3330,
      "Ġchiese": 3331,
      "Ġdivi": 3332,
      "Ġbrividi": 3333,
      "Ġcolle": 3334,
      "Ġpromesso": 3335,
      "gnorante": 3336,
      "Ġnostalgia": 3337,
      "Ġpicchia": 3338,
      "ende": 3339,
      "Ġromp": 3340,
      "anni": 3341,
      "Ġantiche": 3342,
      "Ġvogliamo": 3343,
      "Ġris": 3344,
      "Ġnervo": 3345,
      "ĠCroci": 3346,
      "Ġrinfresca": 3347,
      "Ġvendi": 3348,
      "Ġgiorna": 3349,
      "Ġurlava": 3350,
      "Ġ16": 3351,
      "ttro": 3352,
      "Ġmalissimo": 3353,
      "Ġsapevi": 3354,
      "Ġtecnolog": 3355,
      "Ġgre": 3356,
      "Ġpreparati": 3357,
      "Ġassoluto": 3358,
      "Ġdifesa": 3359,
      "Ġfermi": 3360,
      "Ġprinci": 3361,
      "Ġfebb": 3362,
      "Ġcili": 3363,
      "Ġtecniche": 3364,
      "Ġcif": 3365,
      "Ġgiovan": 3366,
      "Ġlezione": 3367,
      "Ġenormi": 3368,
      "ĠfinchÃ©": 3369,
      "Ġfermar": 3370,
      "Ġanatomia": 3371,
      "ĠOh": 3372,
      "Ġriempi": 3373,
      "Ġbisogno": 3374,
      "ĠprobabilitÃł": 3375,
      "dica": 3376,
      "Ġcomplicato": 3377,
      "Ġfamoso": 3378,
      "Ġcarichi": 3379,
      "opera": 3380,
      "Ġpioggia": 3381,
      "Ġdicevamo": 3382,
      "Ġchiesto": 3383,
      "ĠEsa": 3384,
      "Ġnostre": 3385,
      "Ġpulito": 3386,
      "Ġsfor": 3387,
      "zion": 3388,
      "Ġguidare": 3389,
      "Ġclass": 3390,
      "Ġavete": 3391,
      "Ġtavolo": 3392,
      "ĠChia": 3393,
      "ĠCett": 3394,
      "lori": 3395,
      "Ġtip": 3396,
      "Ġbuttiamo": 3397,
      "Ġoroscopi": 3398,
      "Ġmito": 3399,
      "Ġincon": 3400,
      "ĠRacc": 3401,
      "Ġbrutta": 3402,
      "Ġazzur": 3403,
      "erti": 3404,
      "menza": 3405,
      "Ġscena": 3406,
      "Ġnego": 3407,
      "Ġguardar": 3408,
      "Ġdivertente": 3409,
      "Ġtecla": 3410,
      "Ġgelsi": 3411,
      "Ġattimo": 3412,
      "Ġpescivendoli": 3413,
      "Ġnoia": 3414,
      "Ġteste": 3415,
      "Ġmercati": 3416,
      "Ġgeografia": 3417,
      "Ġignorante": 3418,
      "Ġfidati": 3419,
      "Ġcammini": 3420,
      "Ġcuor": 3421,
      "Ġrabbia": 3422,
      "Ġtuffarsi": 3423,
      "Ġincu": 3424,
      "Ġsonno": 3425,
      "Ġfinanza": 3426,
      "Ġsegui": 3427,
      "Ġspostiamo": 3428,
      "ĠlunedÃ¬": 3429,
      "Ġavevi": 3430,
      "posta": 3431,
      "Ġinsegn": 3432,
      "Ġchiede": 3433,
      "Ġinfini": 3434,
      "Ġvincere": 3435,
      "enta": 3436,
      "onde": 3437,
      "Ġmateria": 3438,
      "Ġslittino": 3439,
      "Ġmorta": 3440,
      "ontana": 3441,
      "Ġtrovato": 3442,
      "Ġmaes": 3443,
      "ĠCerto": 3444,
      "Ġstanco": 3445,
      "Ġparenti": 3446,
      "Ġben": 3447,
      "ĠCibali": 3448,
      "Ġfacevamo": 3449,
      "cale": 3450,
      "Ġimparato": 3451,
      "nto": 3452,
      "Ġunico": 3453,
      "Ġdec": 3454,
      "ĠRacconta": 3455,
      "pienza": 3456,
      "dato": 3457,
      "uga": 3458,
      "Ġcavola": 3459,
      "Ġsimpa": 3460,
      "Ġehi": 3461,
      "Ġarancina": 3462,
      "Ġpuntare": 3463,
      "Ġmasculini": 3464,
      "eta": 3465,
      "Ġesco": 3466,
      "Ġuso": 3467,
      "Ġballano": 3468,
      "Ġcostruito": 3469,
      "Ġbono": 3470,
      "Ġscritte": 3471,
      "Ġspazio": 3472,
      "Ġvolare": 3473,
      "rnet": 3474,
      "Ġspaziale": 3475,
      "goglio": 3476,
      "Ġimmagino": 3477,
      "rendo": 3478,
      "Ġbanda": 3479,
      "ĠEsatto": 3480,
      "Ġschermo": 3481,
      "zzare": 3482,
      "Ġprov": 3483,
      "Ġroman": 3484,
      "Ġperd": 3485,
      "Ġzero": 3486,
      "Ġpreoccupare": 3487,
      "Ġsette": 3488,
      "Ġspendere": 3489,
      "Ġpesciolini": 3490,
      "Ġoccu": 3491,
      "ĠSolo": 3492,
      "Ġmuovono": 3493,
      "ermo": 3494,
      "Ġconc": 3495,
      "Ġscrivi": 3496,
      "Ġinternet": 3497,
      "Ġdorme": 3498,
      "Ġsiedi": 3499,
      "Ġsugo": 3500,
      "Ġsb": 3501,
      "Ġsimenza": 3502,
      "Ġciocco": 3503,
      "universitÃł": 3504,
      "Ġcalia": 3505,
      "Ġdiscoteche": 3506,
      "Ġperdiamo": 3507,
      "Ġsper": 3508,
      "Ġfacevano": 3509,
      "Ġciclopi": 3510,
      "raio": 3511,
      "Ġent": 3512,
      "Ġrinfresc": 3513,
      "Ġnotizie": 3514,
      "ĠStati": 3515,
      "ĠIng": 3516,
      "Ġsacro": 3517,
      "scita": 3518,
      "Ġmessa": 3519,
      "Ġprovato": 3520,
      "Ġsme": 3521,
      "ortan": 3522,
      "Ġmole": 3523,
      "Ġradio": 3524,
      "ĠOgni": 3525,
      "Ġtest": 3526,
      "Ġdica": 3527,
      "Ġgiusti": 3528,
      "Ġelettr": 3529,
      "Ġpercen": 3530,
      "Ġtrage": 3531,
      "ĠDice": 3532,
      "Ġpreferivo": 3533,
      "Ġpancia": 3534,
      "Ġsognare": 3535,
      "Ġorgoglio": 3536,
      "Ġtragedia": 3537,
      "Ġchiacchierare": 3538,
      "Ġgoditi": 3539,
      "Ġatmosferica": 3540,
      "Ġec": 3541,
      "Ġprover": 3542,
      "Ġaccesa": 3543,
      "Ġscarpe": 3544,
      "line": 3545,
      "cetto": 3546,
      "Ġscien": 3547,
      "Ġsvegli": 3548,
      "ĠRaccontami": 3549,
      "Ġgiardino": 3550,
      "onio": 3551,
      "Ġtocca": 3552,
      "Ġrestare": 3553,
      "Ġcatti": 3554,
      "ĠVia": 3555,
      "Ġmestiere": 3556,
      "Ġdialetto": 3557,
      "Ġinsta": 3558,
      "Ġspero": 3559,
      "Ġfebbraio": 3560,
      "Ġes": 3561,
      "Ġprovare": 3562,
      "ttedra": 3563,
      "Ġscappa": 3564,
      "Ġclo": 3565,
      "ĠChiamiamo": 3566,
      "Ġbambini": 3567,
      "ttedrale": 3568,
      "Ġquattro": 3569,
      "Ġconfini": 3570,
      "arli": 3571,
      "Ġrouter": 3572,
      "cchie": 3573,
      "Ġstraniere": 3574,
      "Ġmodulo": 3575,
      "ĠIngegneria": 3576,
      "nere": 3577,
      "Ġdra": 3578,
      "Ġcomb": 3579,
      "Ġpatr": 3580,
      "Ġandando": 3581,
      "die": 3582,
      "Ġpisc": 3583,
      "Ġgode": 3584,
      "Ġscorda": 3585,
      "Ġrideva": 3586,
      "Ġfissa": 3587,
      "eso": 3588,
      "mbri": 3589,
      "ddu": 3590,
      "lina": 3591,
      "Ġmorire": 3592,
      "Ġandavo": 3593,
      "ĠNa": 3594,
      "ugio": 3595,
      "Ġdon": 3596,
      "stri": 3597,
      "ssire": 3598,
      "Ġvuoto": 3599,
      "assicurazione": 3600,
      "Ġpizza": 3601,
      "Ġdottore": 3602,
      "Ġparlato": 3603,
      "Ġcontratto": 3604,
      "Ġguada": 3605,
      "egia": 3606,
      "Ġsfo": 3607,
      "Ġinvisi": 3608,
      "Ġprossimo": 3609,
      "Ġantico": 3610,
      "Ġanima": 3611,
      "Ġtifosi": 3612,
      "Ġciliegia": 3613,
      "Ġmortale": 3614,
      "Ġcrate": 3615,
      "Ġvecchie": 3616,
      "Ġarrossire": 3617,
      "Ġcifre": 3618,
      "Ġocchio": 3619,
      "Ġrischio": 3620,
      "dÃ¬": 3621,
      "Ġfinto": 3622,
      "Ġimportan": 3623,
      "Ġtelegio": 3624,
      "ĠDa": 3625,
      "Ġappro": 3626,
      "Ġmeri": 3627,
      "Ġastronomia": 3628,
      "ĠPal": 3629,
      "Ġcompletamente": 3630,
      "nÃ¬": 3631,
      "Ġpoeta": 3632,
      "Ġtrasp": 3633,
      "ario": 3634,
      "Ġsue": 3635,
      "Ġquestioni": 3636,
      "Ġsapevo": 3637,
      "Ġparlarne": 3638,
      "ĠStatistica": 3639,
      "gento": 3640,
      "metto": 3641,
      "Ġritmo": 3642,
      "Ġcarico": 3643,
      "Ġaccanto": 3644,
      "stiche": 3645,
      "ĠManco": 3646,
      "Ġdiritto": 3647,
      "bita": 3648,
      "Ġotto": 3649,
      "scri": 3650,
      "Ġinforma": 3651,
      "Ġiniziato": 3652,
      "Ġmeccanica": 3653,
      "bbÃ¨": 3654,
      "derti": 3655,
      "Ġcrateri": 3656,
      "Ġinterna": 3657,
      "Ġassolutamente": 3658,
      "soli": 3659,
      "Ġcredi": 3660,
      "Ġscendo": 3661,
      "Ġpescato": 3662,
      "Ġprofumano": 3663,
      "tmosfera": 3664,
      "Ġclasse": 3665,
      "ultima": 3666,
      "atmosfera": 3667,
      "Ġbeh": 3668,
      "ĠvabbÃ¨": 3669,
      "Ġroccia": 3670,
      "Ġprotegge": 3671,
      "Ġcompito": 3672,
      "Ġpulisce": 3673,
      "amore": 3674,
      "Ġmettono": 3675,
      "guardo": 3676,
      "Ġfritti": 3677,
      "uropa": 3678,
      "Ġcirc": 3679,
      "Ġdistrutto": 3680,
      "Ġcerti": 3681,
      "Ġscrivo": 3682,
      "Ġoffro": 3683,
      "ĠLing": 3684,
      "Ġbarocco": 3685,
      "Ġscioglie": 3686,
      "ĠSalve": 3687,
      "Ġprofondo": 3688,
      "visioni": 3689,
      "Ġutile": 3690,
      "Ġarrivava": 3691,
      "Ġdisperato": 3692,
      "Ġclassico": 3693,
      "isce": 3694,
      "Ġsentivo": 3695,
      "ĠStavamo": 3696,
      "Ġimportanti": 3697,
      "fa": 3698,
      "ĠAssicura": 3699,
      "cetta": 3700,
      "Ġpartire": 3701,
      "Ġcurio": 3702,
      "Ġrov": 3703,
      "ĠDe": 3704,
      "ĠStavo": 3705,
      "Ġghiaccio": 3706,
      "Ġsplendi": 3707,
      "Ġdati": 3708,
      "guale": 3709,
      "Ġmoduli": 3710,
      "ĠAssicurazioni": 3711,
      "ĠAh": 3712,
      "Ġscoglio": 3713,
      "talia": 3714,
      "Ġcadono": 3715,
      "ordo": 3716,
      "Ġcapomulini": 3717,
      "ppio": 3718,
      "Ġaspetti": 3719,
      "Ġusciva": 3720,
      "Ġsbaglio": 3721,
      "Ġtraduci": 3722,
      "Ġtelefono": 3723,
      "Ġsott": 3724,
      "Ġdicevano": 3725,
      "Ġguida": 3726,
      "Ġnegozi": 3727,
      "ap": 3728,
      "Ġdrin": 3729,
      "Ġescono": 3730,
      "Ġtaglia": 3731,
      "Ġlimi": 3732,
      "mando": 3733,
      "ĠPassa": 3734,
      "Ġdrink": 3735,
      "gini": 3736,
      "ana": 3737,
      "Ġuguale": 3738,
      "Ġmeraviglio": 3739,
      "Ġtru": 3740,
      "Ġmezz": 3741,
      "Ġpanini": 3742,
      "Ġsveglio": 3743,
      "ĠConcetta": 3744,
      "Ġincubo": 3745,
      "Ġsentimi": 3746,
      "Ġprogrammi": 3747,
      "Ġeserci": 3748,
      "Ġcambiare": 3749,
      "argento": 3750,
      "Ġimpazzendo": 3751,
      "Ġinvisibili": 3752,
      "Ġtonto": 3753,
      "Ġconfuso": 3754,
      "Ġpronti": 3755,
      "Ġnipote": 3756,
      "Ġalti": 3757,
      "Ġcomba": 3758,
      "Ġbrillano": 3759,
      "Ġgiornate": 3760,
      "Ġpermesso": 3761,
      "Ġbrava": 3762,
      "Ġtop": 3763,
      "Ġsalire": 3764,
      "trim": 3765,
      "Ġsqua": 3766,
      "Ġbassa": 3767,
      "Ġperdita": 3768,
      "Ġsdra": 3769,
      "Ġfal": 3770,
      "eli": 3771,
      "volo": 3772,
      "Ġnello": 3773,
      "Ġimpazzi": 3774,
      "Ġchiacchiera": 3775,
      "Ġdomanda": 3776,
      "ĠTalmente": 3777,
      "Ġsche": 3778,
      "cela": 3779,
      "Ġpiacerebbe": 3780,
      "nnÃ¬": 3781,
      "vica": 3782,
      "Ġtimbri": 3783,
      "ĠQua": 3784,
      "colari": 3785,
      "icare": 3786,
      "colare": 3787,
      "Ġnata": 3788,
      "Ġcapolavo": 3789,
      "Ġaggi": 3790,
      "ĠEtna": 3791,
      "Ġinsegni": 3792,
      "Ġsogni": 3793,
      "ĠamunÃ¬nni": 3794,
      "Ġdiventando": 3795,
      "Ġproblema": 3796,
      "Ġnervoso": 3797,
      "fici": 3798,
      "Ġmie": 3799,
      "Ġcloro": 3800,
      "Ġclorofi": 3801,
      "Ġprevisioni": 3802,
      "Ġprofessi": 3803,
      "Ġintende": 3804,
      "Ġami": 3805,
      "Ġspada": 3806,
      "Ġscrivono": 3807,
      "Ġonline": 3808,
      "Ġazzurro": 3809,
      "ĠSicilia": 3810,
      "Ġreli": 3811,
      "lliana": 3812,
      "Ġvenditori": 3813,
      "Ġclorofilliana": 3814,
      "Ġfonda": 3815,
      "zzato": 3816,
      "Ġstorico": 3817,
      "Ġristorante": 3818,
      "bio": 3819,
      "Ġdura": 3820,
      "Ġcadu": 3821,
      "Ġtempesta": 3822,
      "Ġrelax": 3823,
      "Ġcioccolato": 3824,
      "end": 3825,
      "alto": 3826,
      "Ġvendono": 3827,
      "eroporto": 3828,
      "Ġbagna": 3829,
      "Ġrinnovare": 3830,
      "stico": 3831,
      "Ġnevica": 3832,
      "gosto": 3833,
      "ĠQui": 3834,
      "Ġbambino": 3835,
      "Ġadoro": 3836,
      "Ġglo": 3837,
      "Ġmagnifica": 3838,
      "Ġventi": 3839,
      "Ġponti": 3840,
      "ĠHa": 3841,
      "Ġfermati": 3842,
      "Ġinteress": 3843,
      "Ġsuoi": 3844,
      "Ġperdi": 3845,
      "Ġillu": 3846,
      "Ġdiverso": 3847,
      "Ġdecora": 3848,
      "Ġfoca": 3849,
      "Ġgrammi": 3850,
      "Ġaperto": 3851,
      "Ġstrutturale": 3852,
      "Ġpicciriddu": 3853,
      "Ġ2": 3854,
      "Ġcrema": 3855,
      "Ġcambiano": 3856,
      "Ġmoderne": 3857,
      "Ġsentirlo": 3858,
      "Ġtale": 3859,
      "inato": 3860,
      "Ġavvo": 3861,
      "Ġballiamo": 3862,
      "Ġfermarsi": 3863,
      "Ġdiff": 3864,
      "gro": 3865,
      "stare": 3866,
      "Ġmangiarti": 3867,
      "Ġpeggio": 3868,
      "Ġtrema": 3869,
      "Ġracconto": 3870,
      "Ġsiciliana": 3871,
      "aeroporto": 3872,
      "Ġsimi": 3873,
      "gato": 3874,
      "Ġmerda": 3875,
      "Ġtradizione": 3876,
      "gram": 3877,
      "Ġinsegnava": 3878,
      "Ġomb": 3879,
      "Ġspaghe": 3880,
      "Ġorecchio": 3881,
      "Ġbarocca": 3882,
      "inano": 3883,
      "Ġoppure": 3884,
      "Ġpazzi": 3885,
      "Ġspina": 3886,
      "Ġsbagliato": 3887,
      "Ġimpegnato": 3888,
      "Ġvestiti": 3889,
      "Ġtraspare": 3890,
      "ĠAha": 3891,
      "ĠNu": 3892,
      "Ġmaestro": 3893,
      "vuto": 3894,
      "Ġatt": 3895,
      "ggere": 3896,
      "Ġpartico": 3897,
      "Ġdimentico": 3898,
      "Ġfrase": 3899,
      "Ġinstagram": 3900,
      "via": 3901,
      "Ġriva": 3902,
      "ĠQuel": 3903,
      "Ġtermine": 3904,
      "Ġsquadra": 3905,
      "lte": 3906,
      "Ġconqui": 3907,
      "rnale": 3908,
      "Ġtelegiornale": 3909,
      "ontare": 3910,
      "Ġmolo": 3911,
      "Ġcop": 3912,
      "Ġorto": 3913,
      "Ġballato": 3914,
      "Ġcanzoni": 3915,
      "Ġagata": 3916,
      "Ġstupendo": 3917,
      "Ġdigitali": 3918,
      "Ġcapolavoro": 3919,
      "arezza": 3920,
      "Ġsentirle": 3921,
      "Ġpartiamo": 3922,
      "Ġmostro": 3923,
      "Ġmorendo": 3924,
      "Ġsfoglia": 3925,
      "lano": 3926,
      "Ġcolpo": 3927,
      "ĠTimpa": 3928,
      "Ġstupenda": 3929,
      "Ġpagano": 3930,
      "Ġfocaccia": 3931,
      "ris": 3932,
      "Ġrestiamo": 3933,
      "Ġalici": 3934,
      "ĠMalavoglia": 3935,
      "stanza": 3936,
      "Ġcampioni": 3937,
      "Ġmeteo": 3938,
      "Ġconte": 3939,
      "Ġesplode": 3940,
      "Ġcur": 3941,
      "Ġleggere": 3942,
      "Ġvedevo": 3943,
      "by": 3944,
      "etÃł": 3945,
      "Ġcoi": 3946,
      "Ġbatta": 3947,
      "Ġstatistiche": 3948,
      "Ġsfu": 3949,
      "Ġgrosso": 3950,
      "nali": 3951,
      "toglio": 3952,
      "Ġsegn": 3953,
      "Ġmini": 3954,
      "espa": 3955,
      "vato": 3956,
      "Ġverde": 3957,
      "Ġfrittura": 3958,
      "Ġmuore": 3959,
      "Ġtiene": 3960,
      "Ġsbagli": 3961,
      "Ġusano": 3962,
      "Ġcannal": 3963,
      "aperitivo": 3964,
      "Ġavessi": 3965,
      "Ġtratta": 3966,
      "Ġcannallori": 3967,
      "Ġlocale": 3968,
      "Ġcento": 3969,
      "Ġpiccole": 3970,
      "Ġconn": 3971,
      "Ġtrasparente": 3972,
      "Ġprezzi": 3973,
      "Ġwe": 3974,
      "Ġpatrona": 3975,
      "Ġscriveva": 3976,
      "ggono": 3977,
      "Ġricer": 3978,
      "Ġfarla": 3979,
      "Ġlanciato": 3980,
      "Ġdicendo": 3981,
      "Ġcrescere": 3982,
      "Ġsalute": 3983,
      "Ġannoia": 3984,
      "inti": 3985,
      "ĠMar": 3986,
      "Ġpaz": 3987,
      "ssibile": 3988,
      "femo": 3989,
      "Ġpul": 3990,
      "chezza": 3991,
      "Ġfilo": 3992,
      "Ġassicuro": 3993,
      "Ġavevo": 3994,
      "smo": 3995,
      "Ġsalse": 3996,
      "mer": 3997,
      "anche": 3998,
      "ĠOggi": 3999,
      "Ġricostru": 4000,
      "Ġmarca": 4001,
      "rgo": 4002,
      "Ġviva": 4003,
      "Ġportarti": 4004,
      "Ġseriamente": 4005,
      "Ġgara": 4006,
      "Ġguerre": 4007,
      "Ġcircui": 4008,
      "30": 4009,
      "vvi": 4010,
      "Ġpiante": 4011,
      "Ġproverbio": 4012,
      "ĠAlla": 4013,
      "Ġdiverto": 4014,
      "Ġtremen": 4015,
      "Ġreale": 4016,
      "trimonio": 4017,
      "Ġdistra": 4018,
      "Ġscel": 4019,
      "Ġneanche": 4020,
      "Ġintero": 4021,
      "Ġpotresti": 4022,
      "Ġscinti": 4023,
      "Ġpassava": 4024,
      "Ġportami": 4025,
      "Ġcucinare": 4026,
      "Ġconcentra": 4027,
      "Ġrilassa": 4028,
      "Ġtecnologiche": 4029,
      "sche": 4030,
      "ĠVed": 4031,
      "Ġgol": 4032,
      "Ġaiutarmi": 4033,
      "Ġabbia": 4034,
      "Ġesta": 4035,
      "Ġcalcolo": 4036,
      "ĠBene": 4037,
      "Ġtengo": 4038,
      "Ġbattiato": 4039,
      "Ġrecu": 4040,
      "ĠInvesti": 4041,
      "Ġsbagliare": 4042,
      "Ġvolano": 4043,
      "Ġbruciare": 4044,
      "Ġabbraccia": 4045,
      "Ġitalia": 4046,
      "Ġok": 4047,
      "Ġmomenti": 4048,
      "Ġmutui": 4049,
      "Ġstudiano": 4050,
      "Ġincredibili": 4051,
      "Ġsport": 4052,
      "Ġcantare": 4053,
      "ssioni": 4054,
      "Ġvedono": 4055,
      "Ġinuti": 4056,
      "Ġbase": 4057,
      "Ġspettacolari": 4058,
      "Ġcontano": 4059,
      "Ġgodercela": 4060,
      "ĠZia": 4061,
      "Ġspinaci": 4062,
      "Ġsediamo": 4063,
      "Ġtorne": 4064,
      "Ġsalsicce": 4065,
      "Ġtipico": 4066,
      "dina": 4067,
      "Ġcellulare": 4068,
      "ture": 4069,
      "Ġprenderne": 4070,
      "ric": 4071,
      "ĠSo": 4072,
      "Ġscemo": 4073,
      "Ġmese": 4074,
      "ĠNe": 4075,
      "Ġferro": 4076,
      "Ġconvin": 4077,
      "Ġbuttati": 4078,
      "Ġrinato": 4079,
      "Ġimmen": 4080,
      "ette": 4081,
      "Ġ30": 4082,
      "namo": 4083,
      "Ġvolo": 4084,
      "schiamo": 4085,
      "Ġveniva": 4086,
      "zionale": 4087,
      "Ġfila": 4088,
      "Ġpunto": 4089,
      "ĠSalvo": 4090,
      "Ġvalle": 4091,
      "Ġuni": 4092,
      "Ġmistero": 4093,
      "Ġchiamare": 4094,
      "Ġmiglior": 4095,
      "Ġstanca": 4096,
      "gne": 4097,
      "Ġprop": 4098,
      "Ġbacio": 4099,
      "Ġrispar": 4100,
      "Ġdovresti": 4101,
      "Ġsplendida": 4102,
      "Ġmis": 4103,
      "ĠPalermo": 4104,
      "Ġpazienza": 4105,
      "Ġbevuto": 4106,
      "Ġricordare": 4107,
      "Ġpartite": 4108,
      "Ġdiffere": 4109,
      "Ġmod": 4110,
      "Ġturisti": 4111,
      "sante": 4112,
      "Ġprovi": 4113,
      "Ġgioiia": 4114,
      "Ġripiena": 4115,
      "ĠVedrai": 4116,
      "Ġpolvere": 4117,
      "Ġfritto": 4118,
      "ĠBellissimo": 4119,
      "Ġprofumava": 4120,
      "Ġseri": 4121,
      "ĠSpi": 4122,
      "Ġsiano": 4123,
      "Ġsorride": 4124,
      "Ġtuffarti": 4125,
      "Ġaddormen": 4126,
      "Ġpulsante": 4127,
      "Ġnoio": 4128,
      "Ġscordiamo": 4129,
      "Ġesag": 4130,
      "Ġcampione": 4131,
      "Ġagge": 4132,
      "Ġdiventi": 4133,
      "Ġdiscesa": 4134,
      "ĠMangia": 4135,
      "Ġdivertimento": 4136,
      "Ġortografia": 4137,
      "Ġdia": 4138,
      "Ġblo": 4139,
      "ttoria": 4140,
      "Ġripar": 4141,
      "Ġtrovano": 4142,
      "Ġcurva": 4143,
      "icia": 4144,
      "Ġcara": 4145,
      "Ġnegli": 4146,
      "Ġtocc": 4147,
      "Ġsali": 4148,
      "Ġsere": 4149,
      "Ġparlamento": 4150,
      "sticino": 4151,
      "Ġformaggio": 4152,
      "Ġperder": 4153,
      "Ġdescri": 4154,
      "Ġbeve": 4155,
      "Ġportati": 4156,
      "Ġbanco": 4157,
      "Ġmuove": 4158,
      "Ġguide": 4159,
      "ĠNatale": 4160,
      "cali": 4161,
      "Ġisola": 4162,
      "Ġemo": 4163,
      "Ġinnamo": 4164,
      "ffico": 4165,
      "Ġtoccare": 4166,
      "Ġbancone": 4167,
      "tuale": 4168,
      "ĠCettu": 4169,
      "Ġposticino": 4170,
      "ĠGran": 4171,
      "Ġpasseggiare": 4172,
      "Ġavven": 4173,
      "Ġtraffico": 4174,
      "Ġaffa": 4175,
      "Ġazioni": 4176,
      "Ġsapori": 4177,
      "Ġtermini": 4178,
      "Ġragazzino": 4179,
      "Ġspari": 4180,
      "ĠPoli": 4181,
      "Ġmeteoro": 4182,
      "Ġinvi": 4183,
      "Ġcapp": 4184,
      "mela": 4185,
      "Ġscoperto": 4186,
      "Ġmorbida": 4187,
      "Ġordinare": 4188,
      "Ġfissavo": 4189,
      "Ġdesti": 4190,
      "Ġuscita": 4191,
      "Ġtrib": 4192,
      "Ġaltrimenti": 4193,
      "Ġrecuper": 4194,
      "Ġvendere": 4195,
      "Ġcarb": 4196,
      "Ġdivertito": 4197,
      "identi": 4198,
      "Ġsentita": 4199,
      "Ġcomprato": 4200,
      "Ġconfondo": 4201,
      "Ġvederti": 4202,
      "telo": 4203,
      "Ġricar": 4204,
      "Ġfuni": 4205,
      "ĠPolifemo": 4206,
      "Ġschia": 4207,
      "egnere": 4208,
      "Ġspied": 4209,
      "Ġdrago": 4210,
      "Ġsegnali": 4211,
      "Ġleone": 4212,
      "Ġscordo": 4213,
      "Ġregola": 4214,
      "Ġintendevo": 4215,
      "Ġstando": 4216,
      "Ġcavi": 4217,
      "Ġbirre": 4218,
      "Ġaggiu": 4219,
      "dice": 4220,
      "Ġprofumi": 4221,
      "Ġusando": 4222,
      "ĠChiedo": 4223,
      "fetto": 4224,
      "Ġder": 4225,
      "Ġmulta": 4226,
      "Ġspeciali": 4227,
      "Ġbrutti": 4228,
      "Ġdovrei": 4229,
      "Ġfamosi": 4230,
      "vitato": 4231,
      "ĠcuriositÃł": 4232,
      "Ġmessi": 4233,
      "orsi": 4234,
      "ĠStu": 4235,
      "Ġriccio": 4236,
      "Ġcolpa": 4237,
      "Ġscate": 4238,
      "Ġricerca": 4239,
      "ĠCatanese": 4240,
      "ĠQuelli": 4241,
      "Ġimpari": 4242,
      "Ġcipolla": 4243,
      "Ġmaesto": 4244,
      "Ġmalavoglia": 4245,
      "Ġcomporta": 4246,
      "Ġracco": 4247,
      "Ġchiaro": 4248,
      "ek": 4249,
      "Ġperdono": 4250,
      "Ġvoci": 4251,
      "Ġcanzone": 4252,
      "Ġcircuiti": 4253,
      "ĠSpiega": 4254,
      "Ġdiseg": 4255,
      "importante": 4256,
      "ĠImma": 4257,
      "Ġparlavano": 4258,
      "Ġsuccesse": 4259,
      "Ġsmetteva": 4260,
      "Ġschemi": 4261,
      "Ġweek": 4262,
      "Ġfunivia": 4263,
      "Ġderby": 4264,
      "Ġweekend": 4265,
      "Ġind": 4266,
      "Ġfinanzia": 4267,
      "Ġragi": 4268,
      "Ġsembravano": 4269,
      "Ġcapric": 4270,
      "Ġaccompagna": 4271,
      "Ġlontani": 4272,
      "ĠGri": 4273,
      "ĠVera": 4274,
      "Ġmezzogiorno": 4275,
      "Ġfacevo": 4276,
      "Ġformazione": 4277,
      "Ġavvocato": 4278,
      "ettiamo": 4279,
      "Ġtv": 4280,
      "Ġfiglio": 4281,
      "Ġimpo": 4282,
      "Ġvolando": 4283,
      "Ġmangiati": 4284,
      "Ġporzione": 4285,
      "Ġentro": 4286,
      "ĠPassiamo": 4287,
      "late": 4288,
      "ranco": 4289,
      "Ġsporca": 4290,
      "Ġbanchetto": 4291,
      "lico": 4292,
      "zina": 4293,
      "Ġmiste": 4294,
      "Ġcomplicazioni": 4295,
      "Ġusciti": 4296,
      "ĠCrociere": 4297,
      "Ġtorneo": 4298,
      "ft": 4299,
      "ssero": 4300,
      "Ġanali": 4301,
      "Ġtroppe": 4302,
      "Ġsposta": 4303,
      "Ġscivolare": 4304,
      "Ġcli": 4305,
      "Ġpino": 4306,
      "Ġliber": 4307,
      "accordo": 4308,
      "Ġbicchieri": 4309,
      "Ġabbraccio": 4310,
      "Ġdifferenza": 4311,
      "Ġamb": 4312,
      "visione": 4313,
      "Ġtab": 4314,
      "Ġfiera": 4315,
      "Ġconcentriamo": 4316,
      "Ġcavolata": 4317,
      "gelo": 4318,
      "ware": 4319,
      "Ġrinfreschiamo": 4320,
      "universo": 4321,
      "tole": 4322,
      "Ġlette": 4323,
      "Ġlega": 4324,
      "ĠUfficio": 4325,
      "Ġentrano": 4326,
      "Ġesercizio": 4327,
      "Ġrecuperare": 4328,
      "Ġtirare": 4329,
      "Ġmandato": 4330,
      "ĠInte": 4331,
      "Ġfarlo": 4332,
      "Ġscom": 4333,
      "Ġbravi": 4334,
      "Ġincante": 4335,
      "Ġnave": 4336,
      "Ġrisolvere": 4337,
      "identitÃł": 4338,
      "utare": 4339,
      "sciutto": 4340,
      "Ġrovina": 4341,
      "ĠPerfetto": 4342,
      "Ġsimile": 4343,
      "europa": 4344,
      "Ġmaglia": 4345,
      "Ġroto": 4346,
      "Ġtrezza": 4347,
      "Ġlontane": 4348,
      "Ġaddormentato": 4349,
      "ftware": 4350,
      "tiva": 4351,
      "Ġcontratti": 4352,
      "Ġriman": 4353,
      "Ġcalcetto": 4354,
      "stur": 4355,
      "Ġriusciva": 4356,
      "ĠlibertÃł": 4357,
      "Ġdistur": 4358,
      "ell": 4359,
      "tichi": 4360,
      "Ġpiccola": 4361,
      "Ġbattaglia": 4362,
      "Ġmura": 4363,
      "Ġproposta": 4364,
      "ĠIeri": 4365,
      "inge": 4366,
      "ultimo": 4367,
      "Ġsaperlo": 4368,
      "Ġfian": 4369,
      "Ġruo": 4370,
      "Ġparere": 4371,
      "Ġrimasto": 4372,
      "Ġsud": 4373,
      "Ġsensa": 4374,
      "Ġrilass": 4375,
      "vitare": 4376,
      "Ġridu": 4377,
      "bbio": 4378,
      "Ġrespiro": 4379,
      "Ġcrociferi": 4380,
      "ronte": 4381,
      "Ġ-": 4382,
      "Ġcons": 4383,
      "Ġperio": 4384,
      "ĠmetÃł": 4385,
      "Ġsagge": 4386,
      "Ġscienti": 4387,
      "Ġdecide": 4388,
      "Ġtensione": 4389,
      "Ġpad": 4390,
      "ĠSar": 4391,
      "Ġpigro": 4392,
      "Ġtempera": 4393,
      "Ġscorsa": 4394,
      "Ġbit": 4395,
      "Ġspiedini": 4396,
      "Ġpinoli": 4397,
      "ĠPsicologia": 4398,
      "gliono": 4399,
      "Ġvogliono": 4400,
      "Ġgrida": 4401,
      "Ġarrivavano": 4402,
      "Ġcammin": 4403,
      "Ġdiscorsi": 4404,
      "Ġriparare": 4405,
      "Ġchita": 4406,
      "Ġelezioni": 4407,
      "ĠSpiegami": 4408,
      "lt": 4409,
      "olio": 4410,
      "midi": 4411,
      "Ġfoglio": 4412,
      "Ġleggenda": 4413,
      "Ġdiscorso": 4414,
      "Ġsimpatico": 4415,
      "Ġgloria": 4416,
      "Ġestate": 4417,
      "ĠVeramente": 4418,
      "Ġdovevo": 4419,
      "ĠFranc": 4420,
      "Ġtecnica": 4421,
      "Ġaffo": 4422,
      "Ġguai": 4423,
      "Ġtuffato": 4424,
      "Ġinteressante": 4425,
      "ĠFrancia": 4426,
      "ea": 4427,
      "Ġcostate": 4428,
      "Ġbenzina": 4429,
      "scola": 4430,
      "Ġprepariamo": 4431,
      "Ġscoprire": 4432,
      "ĠBenedettini": 4433,
      "Ġpesa": 4434,
      "Ġolio": 4435,
      "tture": 4436,
      "Ġpessi": 4437,
      "Ġrisolve": 4438,
      "Ġsaggezza": 4439,
      "Ġy": 4440,
      "arle": 4441,
      "Ġfiniscono": 4442,
      "Ġinfinito": 4443,
      "Ġchitarra": 4444,
      "Ġtilt": 4445,
      "Ġrotto": 4446,
      "Ġromani": 4447,
      "ortografia": 4448,
      "Ġpotevo": 4449,
      "93": 4450,
      "ren": 4451,
      "Ġsoftware": 4452,
      "Ġsentiti": 4453,
      "Ġgiornali": 4454,
      "ĠCosa": 4455,
      "ĠAmunÃ¬nnÃ¬": 4456,
      "cciato": 4457,
      "Ġfrittelle": 4458,
      "Ġromantico": 4459,
      "Ġscintille": 4460,
      "Ġvoto": 4461,
      "ĠGli": 4462,
      "Ġgodiamoci": 4463,
      "Ġ1693": 4464,
      "Ġparticolare": 4465,
      "Ġdestino": 4466,
      "Ġlettera": 4467,
      "mico": 4468,
      "Ġabi": 4469,
      "Ġmozzare": 4470,
      "Ġarrivasse": 4471,
      "Ġprecisione": 4472,
      "Ġchiusi": 4473,
      "ĠSapienza": 4474,
      "rÃ²": 4475,
      "ann": 4476,
      "Ġrip": 4477,
      "Ġtrasc": 4478,
      "Ġgatto": 4479,
      "Ġcarezza": 4480,
      "maco": 4481,
      "Ġsullo": 4482,
      "ĠCattedrale": 4483,
      "Ġcrista": 4484,
      "Ġregalo": 4485,
      "Ġgiovane": 4486,
      "Ġmozzarella": 4487,
      "Ġmangiando": 4488,
      "Ġguardavamo": 4489,
      "Ġpreparava": 4490,
      "Ġatmosfera": 4491,
      "Ġlimpida": 4492,
      "Ġcas": 4493,
      "Ġmuoversi": 4494,
      "Ġpercentuale": 4495,
      "Ġval": 4496,
      "deo": 4497,
      "Ġparanza": 4498,
      "ĠLachea": 4499,
      "Ġpassaporto": 4500,
      "Ġscrivan": 4501,
      "Ġimparata": 4502,
      "mentale": 4503,
      "Ġdiciamo": 4504,
      "Ġrapp": 4505,
      "Ġportarmi": 4506,
      "Ġstrategia": 4507,
      "Ġperiodo": 4508,
      "Ġsaputo": 4509,
      "Ġtemporale": 4510,
      "inflazione": 4511,
      "Ġcomodi": 4512,
      "Ġinciampa": 4513,
      "Ġequa": 4514,
      "ssia": 4515,
      "Ġimporta": 4516,
      "Ġavevano": 4517,
      "Ġcervelli": 4518,
      "Ġsfuggono": 4519,
      "Ġambien": 4520,
      "eco": 4521,
      "Ġato": 4522,
      "Ġcondi": 4523,
      "oria": 4524,
      "Ġmangiarla": 4525,
      "Ġcarmen": 4526,
      "ĠVen": 4527,
      "Ġdiete": 4528,
      "Ġstavolta": 4529,
      "Ġfulm": 4530,
      "Ġconnessione": 4531,
      "Ġavanti": 4532,
      "eni": 4533,
      "Ġetne": 4534,
      "coin": 4535,
      "Ġlanci": 4536,
      "Ġpiscaria": 4537,
      "Ġali": 4538,
      "ĠMonastero": 4539,
      "Ġandre": 4540,
      "vando": 4541,
      "Ġnuvola": 4542,
      "Ġmonu": 4543,
      "Ġrub": 4544,
      "Ġaggeggi": 4545,
      "erte": 4546,
      "Ġfico": 4547,
      "Ġgiochi": 4548,
      "sole": 4549,
      "venuto": 4550,
      "Ġstomaco": 4551,
      "Ġscatole": 4552,
      "Ġimpara": 4553,
      "Ġscoperta": 4554,
      "Ġstrategie": 4555,
      "Ġetnei": 4556,
      "Ġpericolo": 4557,
      "Ġbuste": 4558,
      "Ġricette": 4559,
      "Ġvideo": 4560,
      "Ġpassata": 4561,
      "Ġluglio": 4562,
      "Ġeleg": 4563,
      "Ġinfluisce": 4564,
      "ĠCarne": 4565,
      "unto": 4566,
      "Ġfede": 4567,
      "Ġmatta": 4568,
      "Ġdedica": 4569,
      "Ġpiacci": 4570,
      "Ġrompe": 4571,
      "ĠGranita": 4572,
      "Ġpiacciono": 4573,
      "Ġrotte": 4574,
      "Ġdimenticarla": 4575,
      "Ġscritta": 4576,
      "bra": 4577,
      "dro": 4578,
      "vol": 4579,
      "ĠMatto": 4580,
      "Ġposs": 4581,
      "gori": 4582,
      "Ġtornato": 4583,
      "Ġmoderna": 4584,
      "Ġiris": 4585,
      "Ġarriviamo": 4586,
      "Ġaspettiamo": 4587,
      "Ġdifen": 4588,
      "Ġabbattere": 4589,
      "ĠfalÃ²": 4590,
      "Ġcappello": 4591,
      "Ġsensazione": 4592,
      "Ġcomunque": 4593,
      "Ġstaccare": 4594,
      "Ġseguire": 4595,
      "Ġantichi": 4596,
      "ĠGi": 4597,
      "Ġstufa": 4598,
      "Ġcorrono": 4599,
      "ĠRos": 4600,
      "Ġaccompagni": 4601,
      "Ġstile": 4602,
      "ĠBattiato": 4603,
      "ĠGridano": 4604,
      "Ġsicu": 4605,
      "Ġpunta": 4606,
      "altÃł": 4607,
      "Ġponte": 4608,
      "pale": 4609,
      "Ġingegnere": 4610,
      "Ġprincipale": 4611,
      "Ġcapricci": 4612,
      "tone": 4613,
      "mpare": 4614,
      "bite": 4615,
      "Ġviaggia": 4616,
      "Ġfortunato": 4617,
      "Ġusiamo": 4618,
      "Ġspaghetti": 4619,
      "Ġinutile": 4620,
      "Ġsvitato": 4621,
      "Ġvicini": 4622,
      "ĠCom": 4623,
      "Ġminuti": 4624,
      "economia": 4625,
      "Ġzi": 4626,
      "Ġcieco": 4627,
      "Ġsentiva": 4628,
      "Ġfir": 4629,
      "ggiorno": 4630,
      "Ġraccontare": 4631,
      "Ġrifarlo": 4632,
      "lisse": 4633,
      "Ġstatua": 4634,
      "mamente": 4635,
      "Ġbasi": 4636,
      "Ġattento": 4637,
      "Ġsoggiorno": 4638,
      "Ġstorto": 4639,
      "Ġdovuto": 4640,
      "Ġinformatica": 4641,
      "pia": 4642,
      "Ġpreno": 4643,
      "Ġcapitolo": 4644,
      "Ġpessima": 4645,
      "Ġfontana": 4646,
      "Ġunica": 4647,
      "lloni": 4648,
      "Ġcircolo": 4649,
      "Ġcrea": 4650,
      "ĠMu": 4651,
      "ĠfarÃł": 4652,
      "Ġappa": 4653,
      "Ġgeni": 4654,
      "Ġdecente": 4655,
      "ĠAscol": 4656,
      "Ġbriscola": 4657,
      "Ġmarina": 4658,
      "Ġsaltano": 4659,
      "Ġragazzini": 4660,
      "Ġteoria": 4661,
      "Ġmangiate": 4662,
      "Ġbevi": 4663,
      "Ġchilo": 4664,
      "Ġforze": 4665,
      "ĠUlisse": 4666,
      "Ġcambiato": 4667,
      "Ġgreco": 4668,
      "Ġruote": 4669,
      "Ġbitcoin": 4670,
      "Ġyo": 4671,
      "Ġmappa": 4672,
      "arne": 4673,
      "Ġscienzia": 4674,
      "iuga": 4675,
      "Ġtante": 4676,
      "Ġconfi": 4677,
      "mpagna": 4678,
      "Ġborse": 4679,
      "Ġbianchi": 4680,
      "ĠStoria": 4681,
      "zionali": 4682,
      "ĠInvestimenti": 4683,
      "rabo": 4684,
      "Ġsupera": 4685,
      "Ġprosciutto": 4686,
      "Ġlasciato": 4687,
      "Ġerro": 4688,
      "Ġrinascere": 4689,
      "metri": 4690,
      "Ġlista": 4691,
      "tuali": 4692,
      "ĠDove": 4693,
      "Ġpulire": 4694,
      "Ġcandita": 4695,
      "Ġsemplici": 4696,
      "âĢ": 4697,
      "Ġmorto": 4698,
      "Ġpuro": 4699,
      "Ġbuffa": 4700,
      "Ġleggera": 4701,
      "Ġpreoccupa": 4702,
      "Ġimmenso": 4703,
      "Ġprovo": 4704,
      "Ġvuota": 4705,
      "ĠLavo": 4706,
      "Ġrende": 4707,
      "Ġcambi": 4708,
      "Ġbrutto": 4709,
      "Ġprecisa": 4710,
      "Ġrisponde": 4711,
      "69": 4712,
      "Ġdanno": 4713,
      "Ġdista": 4714,
      "Ġprofonda": 4715,
      "Ġcorri": 4716,
      "Ġspagna": 4717,
      "Ġgiovani": 4718,
      "Ġsperando": 4719,
      "unali": 4720,
      "ĠAve": 4721,
      "Ġscendiamo": 4722,
      "ĠSaro": 4723,
      "Ġultime": 4724,
      "Ġ1669": 4725,
      "Ġcombatto": 4726,
      "ke": 4727,
      "nÃ²": 4728,
      "ersi": 4729,
      "Ġzo": 4730,
      "stenza": 4731,
      "Ġspettina": 4732,
      "Ġguardava": 4733,
      "Ġcresci": 4734,
      "Ġpulita": 4735,
      "Ġpalazzo": 4736,
      "ĠZero": 4737,
      "Ġrovini": 4738,
      "gre": 4739,
      "Ġmacchie": 4740,
      "Ġstraniera": 4741,
      "Ġbalcone": 4742,
      "ĠSabato": 4743,
      "Ġriflesso": 4744,
      "Ġmesi": 4745,
      "Ġrischi": 4746,
      "ĠCittadini": 4747,
      "Ġlasciano": 4748,
      "Ġbove": 4749,
      "Ġleggero": 4750,
      "Ġrisparmi": 4751,
      "Ġpotenza": 4752,
      "ĠRif": 4753,
      "Ġtemperatura": 4754,
      "ori": 4755,
      "Ġpla": 4756,
      "Ġisole": 4757,
      "ĠParla": 4758,
      "Ġcrescono": 4759,
      "Ġpossono": 4760,
      "ĠCal": 4761,
      "Ġmuro": 4762,
      "Ġsfri": 4763,
      "Ġsegreti": 4764,
      "ziona": 4765,
      "Ġvasso": 4766,
      "Ġfacciamoci": 4767,
      "Ġnostru": 4768,
      "Ġspiace": 4769,
      "ĠRic": 4770,
      "Ġavrei": 4771,
      "nare": 4772,
      "sciuga": 4773,
      "Ġtasso": 4774,
      "Ġbei": 4775,
      "ĠVo": 4776,
      "ttutto": 4777,
      "Ġfigo": 4778,
      "Ġimb": 4779,
      "rossa": 4780,
      "Ġpartono": 4781,
      "ĠrealtÃł": 4782,
      "Ġtocco": 4783,
      "Ġconoscere": 4784,
      "ie": 4785,
      "Ġabita": 4786,
      "Ġlegno": 4787,
      "Ġtal": 4788,
      "Ġbutti": 4789,
      "anotte": 4790,
      "Ġparlava": 4791,
      "Ġsaluto": 4792,
      "Ġeurope": 4793,
      "Ġagita": 4794,
      "Ġcopre": 4795,
      "Ġprossime": 4796,
      "Ġspaven": 4797,
      "ĠFontana": 4798,
      "Ġbibite": 4799,
      "Ġprocesso": 4800,
      "Ġallegro": 4801,
      "Ġservirebbe": 4802,
      "Ġappassi": 4803,
      "vera": 4804,
      "Ġconsoli": 4805,
      "Ġparche": 4806,
      "Ġcolorati": 4807,
      "Ġlimite": 4808,
      "Ġmezzanotte": 4809,
      "ĠFontanarossa": 4810,
      "hanno": 4811,
      "Ġdivano": 4812,
      "Ġprezzo": 4813,
      "Ġbulloni": 4814,
      "ĠBen": 4815,
      "ĠPrendi": 4816,
      "sita": 4817,
      "toli": 4818,
      "Ġtiro": 4819,
      "Ġtraguardo": 4820,
      "Ġtorni": 4821,
      "ĠDomenica": 4822,
      "Ġfunzionare": 4823,
      "Ġgestione": 4824,
      "ĠAscolta": 4825,
      "incia": 4826,
      "Ġresi": 4827,
      "gole": 4828,
      "Ġfollia": 4829,
      "Ġeconomia": 4830,
      "Ġfulmine": 4831,
      "red": 4832,
      "ĠSco": 4833,
      "ĠcompÃł": 4834,
      "ĠBiologia": 4835,
      "Ġferrea": 4836,
      "Ġacceso": 4837,
      "Ġritrova": 4838,
      "annia": 4839,
      "ichi": 4840,
      "Ġpiene": 4841,
      "ĠTre": 4842,
      "Ġvara": 4843,
      "Ġpicco": 4844,
      "Ġillumina": 4845,
      "Ġsalsedine": 4846,
      "Ġdiavolo": 4847,
      "icarmi": 4848,
      "Ġdip": 4849,
      "Ġsagre": 4850,
      "Ġvetro": 4851,
      "Ġbusso": 4852,
      "tuzza": 4853,
      "Ġreagi": 4854,
      "ĠLingua": 4855,
      "Ġraccomando": 4856,
      "ĠRifugio": 4857,
      "Ġsecoli": 4858,
      "Ġpressioni": 4859,
      "Ġstr": 4860,
      "Ġbusto": 4861,
      "Ġbilan": 4862,
      "Ġ10": 4863,
      "Ġtrucco": 4864,
      "Ġfondamentale": 4865,
      "ĠLavoro": 4866,
      "Ġbussola": 4867,
      "pole": 4868,
      "Ġpassati": 4869,
      "Ġsarei": 4870,
      "Ġtremendo": 4871,
      "lgono": 4872,
      "Ġmago": 4873,
      "Ġlabo": 4874,
      "Ġcosi": 4875,
      "ĠAi": 4876,
      "ĠLei": 4877,
      "ĠVanni": 4878,
      "Ġvir": 4879,
      "diare": 4880,
      "Ġportarci": 4881,
      "acciuga": 4882,
      "Ġiniziata": 4883,
      "Ġbutto": 4884,
      "Ġpreferisce": 4885,
      "Ġiniziano": 4886,
      "Ġbuonissima": 4887,
      "cchetto": 4888,
      "Ġregala": 4889,
      "anato": 4890,
      "Ġrotolo": 4891,
      "Ġpicnic": 4892,
      "Ġsplende": 4893,
      "gente": 4894,
      "selli": 4895,
      "Ġelefante": 4896,
      "Ġaccendiamo": 4897,
      "Ġlimpido": 4898,
      "Ġriempie": 4899,
      "Ġrisparmia": 4900,
      "Ġzodia": 4901,
      "anatomia": 4902,
      "bbi": 4903,
      "Ġcacio": 4904,
      "Ġpiselli": 4905,
      "cavallo": 4906,
      "Ġincar": 4907,
      "ĠNiente": 4908,
      "Ġballava": 4909,
      "Ġbancare": 4910,
      "Ġmettersi": 4911,
      "Ġprenderti": 4912,
      "Ġdubbio": 4913,
      "Ġsistemato": 4914,
      "Ġcaciocavallo": 4915,
      "remmo": 4916,
      "Ġpersi": 4917,
      "Ġcaval": 4918,
      "Ġusi": 4919,
      "Ġmollo": 4920,
      "Ġpeso": 4921,
      "dii": 4922,
      "Ġsalate": 4923,
      "Ġnove": 4924,
      "Ġbagn": 4925,
      "Ġreddi": 4926,
      "Ġrinfreschi": 4927,
      "Ġripieno": 4928,
      "rdo": 4929,
      "Ġpossiamo": 4930,
      "Ġriduzione": 4931,
      "Ġparcheggio": 4932,
      "Ġceri": 4933,
      "Ġex": 4934,
      "Ġpendii": 4935,
      "Ġmolti": 4936,
      "Ġresti": 4937,
      "Ġsalve": 4938,
      "Ġlanciava": 4939,
      "Ġoccupo": 4940,
      "cle": 4941,
      "rigi": 4942,
      "Ġindie": 4943,
      "Ġcase": 4944,
      "Ġcompra": 4945,
      "golo": 4946,
      "Ġmeriti": 4947,
      "Ġindietro": 4948,
      "Ġnor": 4949,
      "Ġperme": 4950,
      "Ġtue": 4951,
      "Ġscrittura": 4952,
      "accento": 4953,
      "Ġsorge": 4954,
      "Ġsapeva": 4955,
      "Ġcomodo": 4956,
      "Ġinternazionali": 4957,
      "darmi": 4958,
      "lÃł": 4959,
      "Ġdarmi": 4960,
      "Ġdirlo": 4961,
      "ĠLui": 4962,
      "Ġrivale": 4963,
      "mbe": 4964,
      "Ġmolla": 4965,
      "Ġnucle": 4966,
      "Ġchiedo": 4967,
      "Ġstorica": 4968,
      "Ġtesori": 4969,
      "Ġindicarmi": 4970,
      "mini": 4971,
      "Ġurlo": 4972,
      "Ġsalito": 4973,
      "Ġdritte": 4974,
      "Ġapri": 4975,
      "Ġinsegnarmi": 4976,
      "tella": 4977,
      "Ġsasso": 4978,
      "Ġquantistica": 4979,
      "ĠDie": 4980,
      "Ġcantante": 4981,
      "Ġtelefoni": 4982,
      "ĠSarÃł": 4983,
      "Ġtiri": 4984,
      "Ġpotente": 4985,
      "ttato": 4986,
      "Ġsapienza": 4987,
      "ttima": 4988,
      "ĠEri": 4989,
      "Ġcapelli": 4990,
      "Ġrifugio": 4991,
      "Ġturista": 4992,
      "Ġmolecolare": 4993,
      "ter": 4994,
      "ond": 4995,
      "ĠsennÃ²": 4996,
      "Ġanzi": 4997,
      "Ġrid": 4998,
      "Ġmure": 4999,
      "Ġmattino": 5000,
      "Ġdigitale": 5001,
      "Ġvassoio": 5002,
      "Ġmuntagna": 5003,
      "Ġauto": 5004,
      "Ġsosti": 5005,
      "Ġmangiava": 5006,
      "Ġmangiarne": 5007,
      "Ġpetto": 5008,
      "Ġtelevisione": 5009,
      "Ġombre": 5010,
      "energia": 5011,
      "Ġrido": 5012,
      "Ġdallo": 5013,
      "ĠBra": 5014,
      "Ġcirco": 5015,
      "Ġcinese": 5016,
      "enze": 5017,
      "Ġdirti": 5018,
      "Ġgenere": 5019,
      "Ġlampa": 5020,
      "Ġferm": 5021,
      "Ġscendono": 5022,
      "Ġsorridere": 5023,
      "Ġcarriera": 5024,
      "ĠBenvenuto": 5025,
      "Ġbasso": 5026,
      "Ġarte": 5027,
      "Ġarti": 5028,
      "Ġsoprattutto": 5029,
      "ĠquantitÃł": 5030,
      "Ġcrisi": 5031,
      "Ġinciampare": 5032,
      "Ġsin": 5033,
      "Ġappo": 5034,
      "Ġdichia": 5035,
      "Ġsentirsi": 5036,
      "chino": 5037,
      "Ġguanti": 5038,
      "Ġmettiti": 5039,
      "Ġgeli": 5040,
      "Ġscienze": 5041,
      "Ġattra": 5042,
      "Ġcasini": 5043,
      "Ai": 5044,
      "Ġaperte": 5045,
      "ĠProgra": 5046,
      "Ġsfortuna": 5047,
      "Ġmisteri": 5048,
      "Aituzza": 5049,
      "vio": 5050,
      "Ġripa": 5051,
      "ĠAmunÃ¬nni": 5052,
      "Ġsegue": 5053,
      "Ġlimoni": 5054,
      "Ġprofessioni": 5055,
      "Ġdisturbo": 5056,
      "astronomia": 5057,
      "glo": 5058,
      "Ġsedia": 5059,
      "ĠTe": 5060,
      "gliere": 5061,
      "Ġsalva": 5062,
      "Ġbolle": 5063,
      "Ġattenti": 5064,
      "Ġcuori": 5065,
      "mmelo": 5066,
      "ĠLina": 5067,
      "Ġconosc": 5068,
      "Ġgrosse": 5069,
      "ĠNuccio": 5070,
      "Ġtalento": 5071,
      "emozione": 5072,
      "Ġindu": 5073,
      "Ġsosta": 5074,
      "simi": 5075,
      "Ġstia": 5076,
      "Ġtuffiamo": 5077,
      "Ġdivertirsi": 5078,
      "Ġfece": 5079,
      "Ġinfluen": 5080,
      "Ġfianco": 5081,
      "glossa": 5082,
      "miche": 5083,
      "Ġdio": 5084,
      "ermi": 5085,
      "Ġsaluta": 5086,
      "Ġferra": 5087,
      "Ġballi": 5088,
      "Ġvespa": 5089,
      "Ġori": 5090,
      "icoloso": 5091,
      "Ġdevozione": 5092,
      "Ġtradurre": 5093,
      "Ġarrabbiare": 5094,
      "Ġtabelle": 5095,
      "Ġbancarelle": 5096,
      "Ġsg": 5097,
      "ĠVero": 5098,
      "Ġscoppi": 5099,
      "Ġpensano": 5100,
      "schia": 5101,
      "Ġavan": 5102,
      "Ġstavano": 5103,
      "Ġlocali": 5104,
      "Ġlasciami": 5105,
      "ĠHanno": 5106,
      "Ġrisposta": 5107,
      "Ġimpazzito": 5108,
      "Ġragiona": 5109,
      "cel": 5110,
      "Ġconca": 5111,
      "Ġscesi": 5112,
      "Ġorecchie": 5113,
      "Ġgala": 5114,
      "Ġvestito": 5115,
      "ondra": 5116,
      "Ġlamenta": 5117,
      "Ġlargo": 5118,
      "Ġcapiscono": 5119,
      "Ġfaccende": 5120,
      "Ġfretta": 5121,
      "Ġvergo": 5122,
      "Ġmulte": 5123,
      "ĠNicolo": 5124,
      "Ġvolevamo": 5125,
      "Ġcrede": 5126,
      "Ġfermato": 5127,
      "Ġassaggi": 5128,
      "ĠehilÃł": 5129,
      "elina": 5130,
      "vetta": 5131,
      "Ġspera": 5132,
      "Ġgiuste": 5133,
      "Ġaspettano": 5134,
      "Ġtavolata": 5135,
      "Ġambientato": 5136,
      "Ġpermetta": 5137,
      "ĠNicolosi": 5138,
      "Ġgiocano": 5139,
      "vate": 5140,
      "Ġproviamo": 5141,
      "Ġvac": 5142,
      "Ġdiversa": 5143,
      "Ġprenderla": 5144,
      "Ġcellula": 5145,
      "Ġparolone": 5146,
      "Ġuo": 5147,
      "onino": 5148,
      "Ġdimmelo": 5149,
      "ĠCos": 5150,
      "Ġarrivando": 5151,
      "Ġgentile": 5152,
      "ĠAltro": 5153,
      "Ġredditi": 5154,
      "mila": 5155,
      "Ġur": 5156,
      "Ġpian": 5157,
      "Ġfigli": 5158,
      "Ġlumina": 5159,
      "ĠNino": 5160,
      "Ġricordato": 5161,
      "Ġabbastanza": 5162,
      "ĠLinguaglossa": 5163,
      "Ġnucleare": 5164,
      "Ġdichiara": 5165,
      "ck": 5166,
      "Ġminuto": 5167,
      "Ġcontinuo": 5168,
      "ĠCarmen": 5169,
      "gano": 5170,
      "ĠLondra": 5171,
      "Ġparlavo": 5172,
      "ciata": 5173,
      "Ġvince": 5174,
      "Ġsistemi": 5175,
      "Ġriposo": 5176,
      "Ġmerito": 5177,
      "res": 5178,
      "rana": 5179,
      "Ġprendono": 5180,
      "Ġverga": 5181,
      "ciare": 5182,
      "ssato": 5183,
      "Ġannoio": 5184,
      "Ġultimamente": 5185,
      "ĠAhaha": 5186,
      "Ġtribunali": 5187,
      "ĠStudiare": 5188,
      "Ġfetta": 5189,
      "Ġpassavamo": 5190,
      "Ġstanchezza": 5191,
      "Ġarrotola": 5192,
      "Ġsoffia": 5193,
      "Ġdecre": 5194,
      "Ġclima": 5195,
      "Ġsperavo": 5196,
      "Ġalgori": 5197,
      "Ġmeta": 5198,
      "Ġsentivamo": 5199,
      "Ġza": 5200,
      "Ġfarina": 5201,
      "Ġseguono": 5202,
      "Ġcannella": 5203,
      "Ġdonna": 5204,
      "Ġmeravigliosa": 5205,
      "Ġfinanziari": 5206,
      "onsa": 5207,
      "Ġevitare": 5208,
      "Ġposta": 5209,
      "mbra": 5210,
      "Ġvittoria": 5211,
      "Ġmuri": 5212,
      "Ġintera": 5213,
      "Ġpangra": 5214,
      "Ġpesi": 5215,
      "Ġprofumata": 5216,
      "Ġanalisi": 5217,
      "Ġbasilico": 5218,
      "Ġchilometri": 5219,
      "Ġcavalli": 5220,
      "Ġpist": 5221,
      "Ġtasca": 5222,
      "ĠmenÃ¹": 5223,
      "Ġmuovi": 5224,
      "ĠInvece": 5225,
      "Ġtavoli": 5226,
      "Ġscordarmela": 5227,
      "Ġorganizzato": 5228,
      "Ġrinnovo": 5229,
      "Ġcollegare": 5230,
      "Ġguardarle": 5231,
      "Ġcavolate": 5232,
      "Ġuniver": 5233,
      "Ġpangrattato": 5234,
      "Ġvenga": 5235,
      "Ġvalore": 5236,
      "Ġmostri": 5237,
      "Ġincanta": 5238,
      "Ġdocumento": 5239,
      "Ġscoppietta": 5240,
      "beli": 5241,
      "Ġmarti": 5242,
      "Ġbio": 5243,
      "Ġboa": 5244,
      "Ġdivertirti": 5245,
      "Ġsmetti": 5246,
      "Ġpercentuali": 5247,
      "ĠImmagina": 5248,
      "belisco": 5249,
      "vente": 5250,
      "ansia": 5251,
      "Ġsesto": 5252,
      "Ġpericoloso": 5253,
      "Ġdolore": 5254,
      "Ġtasti": 5255,
      "Ġgridano": 5256,
      "Ġchioschi": 5257,
      "ĠConsoli": 5258,
      "Ġbrivido": 5259,
      "Ġcampagna": 5260,
      "Ġpasticceria": 5261,
      "Ġaltrove": 5262,
      "Ġprenotare": 5263,
      "Ġvirgola": 5264,
      "Ġsano": 5265,
      "antica": 5266,
      "ĠAsp": 5267,
      "ĠParigi": 5268,
      "ĠCetty": 5269,
      "tÃ¬": 5270,
      "Ġgrigliate": 5271,
      "quie": 5272,
      "Ġbotta": 5273,
      "Ġgambe": 5274,
      "ĠChimica": 5275,
      "Ġsuperato": 5276,
      "merica": 5277,
      "Ġmassa": 5278,
      "Ġinven": 5279,
      "Ġsuona": 5280,
      "Ġricco": 5281,
      "Ġraff": 5282,
      "Ġstella": 5283,
      "ĠOra": 5284,
      "Ġallegra": 5285,
      "Ġavvi": 5286,
      "Ġprenditi": 5287,
      "Ġincontra": 5288,
      "Ġreliquie": 5289,
      "gica": 5290,
      "Ġlabi": 5291,
      "Ġsogna": 5292,
      "Ġodore": 5293,
      "Ġreazione": 5294,
      "Ġfossimo": 5295,
      "Ġsanto": 5296,
      "Ġcorreva": 5297,
      "Ġscaldiamo": 5298,
      "strologia": 5299,
      "Ġrispon": 5300,
      "Ġballo": 5301,
      "Ġsciocche": 5302,
      "Ġpolitici": 5303,
      "Ġsfrigola": 5304,
      "Ġluminarie": 5305,
      "Ġlabirin": 5306,
      "Ġpc": 5307,
      "Ġfarli": 5308,
      "Ġmus": 5309,
      "Ġchieder": 5310,
      "Ġscendi": 5311,
      "Ġnipoti": 5312,
      "Ġeuropee": 5313,
      "utta": 5314,
      "ttori": 5315,
      "Ġpatrimonio": 5316,
      "ĠSp": 5317,
      "Ġridono": 5318,
      "Ġtuffarci": 5319,
      "Ġsorpre": 5320,
      "Ġtorniamo": 5321,
      "cento": 5322,
      "Ġconseg": 5323,
      "Ġcompo": 5324,
      "tten": 5325,
      "Ġbrutte": 5326,
      "Ġvelocemente": 5327,
      "untamento": 5328,
      "Ġgoduti": 5329,
      "ĠPortano": 5330,
      "Ġcarattere": 5331,
      "Ġlabirinto": 5332,
      "Ġdure": 5333,
      "bbero": 5334,
      "Ġguardarlo": 5335,
      "Ġdivento": 5336,
      "ĠPrepa": 5337,
      "Ġcolorata": 5338,
      "Ġlanciando": 5339,
      "Ġlitigare": 5340,
      "Ġlitigato": 5341,
      "Ġrinfrescarsi": 5342,
      "Ġreligione": 5343,
      "icano": 5344,
      "Ġdanza": 5345,
      "logo": 5346,
      "scolto": 5347,
      "Ġraggi": 5348,
      "indisi": 5349,
      "Ġboll": 5350,
      "ticolo": 5351,
      "Ġsignori": 5352,
      "esistenza": 5353,
      "Ġraccontato": 5354,
      "Ġbrindisi": 5355,
      "ĠLinguistica": 5356,
      "Ġmassimino": 5357,
      "ĠImp": 5358,
      "Ġresp": 5359,
      "Ġleggendo": 5360,
      "Ġbarchetta": 5361,
      "ĠBasta": 5362,
      "Ġrisul": 5363,
      "Ġoccupa": 5364,
      "Ġsbu": 5365,
      "Ġradiolina": 5366,
      "zare": 5367,
      "ĠMo": 5368,
      "Ġpochino": 5369,
      "Ġquadro": 5370,
      "Ġscopa": 5371,
      "Ġsalita": 5372,
      "Ġpescati": 5373,
      "darsi": 5374,
      "Ġabbannia": 5375,
      "Ġmartoglio": 5376,
      "Ġstrutture": 5377,
      "Ġincastro": 5378,
      "ĠMartoglio": 5379,
      "Ġlegale": 5380,
      "Ġmandare": 5381,
      "Ġuvetta": 5382,
      "Ġmagiche": 5383,
      "Ġpanetti": 5384,
      "Ġguari": 5385,
      "Ġscatenato": 5386,
      "ĠIntelligenza": 5387,
      "Ġatomi": 5388,
      "Ġrisparmiare": 5389,
      "Ġresponsa": 5390,
      "Ġcattedrale": 5391,
      "zzonte": 5392,
      "Ġcarino": 5393,
      "Ġandiamoci": 5394,
      "ĠNello": 5395,
      "Ġbibita": 5396,
      "Ġbotto": 5397,
      "Ġprofumavano": 5398,
      "ĠDeve": 5399,
      "vviso": 5400,
      "Ġaffogare": 5401,
      "Ġvalgono": 5402,
      "Ġequazione": 5403,
      "Ġarrotolate": 5404,
      "edi": 5405,
      "sare": 5406,
      "dizione": 5407,
      "Ġpezze": 5408,
      "Ġvoli": 5409,
      "Ġverdu": 5410,
      "ĠQuelle": 5411,
      "Ġmontagne": 5412,
      "Ġpunti": 5413,
      "Ġagosto": 5414,
      "Ġinsegnata": 5415,
      "Ġarrivati": 5416,
      "Ġsoltanto": 5417,
      "Ġpolver": 5418,
      "Ġcrolla": 5419,
      "Ġorganizzo": 5420,
      "Ġecono": 5421,
      "ĠAhah": 5422,
      "Ġaffasc": 5423,
      "Ġstagione": 5424,
      "Ġopera": 5425,
      "Ġmedia": 5426,
      "Ġsanti": 5427,
      "Ġfigur": 5428,
      "Ġassaggia": 5429,
      "Ġtraduce": 5430,
      "Ġmacell": 5431,
      "Ġaddormenta": 5432,
      "Ġaggiusta": 5433,
      "orizzonte": 5434,
      "Ġartista": 5435,
      "entro": 5436,
      "orre": 5437,
      "Ġcalo": 5438,
      "ĠSmart": 5439,
      "Ġchiavi": 5440,
      "cciate": 5441,
      "Ġrisolto": 5442,
      "Ġpunte": 5443,
      "Ġcantava": 5444,
      "Ġriuscivo": 5445,
      "Ġgelsomino": 5446,
      "Ġgelida": 5447,
      "rtelo": 5448,
      "ĠsentÃ¬": 5449,
      "Ġpossibile": 5450,
      "Ġtassi": 5451,
      "Ġscogliere": 5452,
      "Ġprendermi": 5453,
      "Ġmorti": 5454,
      "Ġritroviamo": 5455,
      "Ġdescrivi": 5456,
      "ĠMelina": 5457,
      "Ġvisita": 5458,
      "Ġsostitui": 5459,
      "ĠCosÃ¬": 5460,
      "Ġmacellerie": 5461,
      "Ġfone": 5462,
      "Ġaltre": 5463,
      "Ġliotru": 5464,
      "Ġgiocato": 5465,
      "glietta": 5466,
      "Ġricono": 5467,
      "Ġqualunque": 5468,
      "Ġfarcite": 5469,
      "ratorio": 5470,
      "Ġdeciso": 5471,
      "Ġsolita": 5472,
      "Ġconcerto": 5473,
      "Ġlaboratorio": 5474,
      "ĠDieci": 5475,
      "Ġcapivo": 5476,
      "Ġbuco": 5477,
      "Ġcul": 5478,
      "Ġarancine": 5479,
      "Ġcamminata": 5480,
      "tmi": 5481,
      "Ġvende": 5482,
      "ttu": 5483,
      "ĠUno": 5484,
      "ĠOn": 5485,
      "Ġmattinata": 5486,
      "Ġnessuna": 5487,
      "Ġmiracoli": 5488,
      "Ġmoderno": 5489,
      "ĠScoppio": 5490,
      "Ġabbanniate": 5491,
      "cri": 5492,
      "sina": 5493,
      "th": 5494,
      "uma": 5495,
      "icento": 5496,
      "Ġascolto": 5497,
      "Ġuniche": 5498,
      "Ġsecco": 5499,
      "Ġinvita": 5500,
      "Ġpatente": 5501,
      "Ġprimi": 5502,
      "Ġspiego": 5503,
      "Ġprovarla": 5504,
      "Ġconfigu": 5505,
      "Ġcande": 5506,
      "Ġprecise": 5507,
      "Ġdimenticato": 5508,
      "Ġpiscina": 5509,
      "Ġsdraio": 5510,
      "Ġcaduto": 5511,
      "mosso": 5512,
      "Ġconcetto": 5513,
      "Ġcibali": 5514,
      "zziamo": 5515,
      "Ġrestano": 5516,
      "Ġciclo": 5517,
      "ĠFiloso": 5518,
      "Ġpistoni": 5519,
      "tati": 5520,
      "Ġvaria": 5521,
      "Ġmastico": 5522,
      "Ġalc": 5523,
      "Ġtitoli": 5524,
      "ĠAssia": 5525,
      "china": 5526,
      "Ġbenede": 5527,
      "Ġlumino": 5528,
      "Ġscorpa": 5529,
      "Ġesame": 5530,
      "Ġraccontava": 5531,
      "essioni": 5532,
      "Ġaiutami": 5533,
      "Ġpesciolino": 5534,
      "Ġpicchiava": 5535,
      "spi": 5536,
      "Ġgelo": 5537,
      "ĠSembra": 5538,
      "Ġgodendo": 5539,
      "Ġcorse": 5540,
      "Ġavanza": 5541,
      "erano": 5542,
      "Ġmangiarsi": 5543,
      "Ġbraciata": 5544,
      "Ġscatola": 5545,
      "ĠAnzi": 5546,
      "Ġvedeva": 5547,
      "ĠGrazia": 5548,
      "Ġcontrolla": 5549,
      "Ġconcorso": 5550,
      "Ġsmettere": 5551,
      "Ġelegante": 5552,
      "Ġstringe": 5553,
      "mone": 5554,
      "Ġac": 5555,
      "enso": 5556,
      "ĠSpa": 5557,
      "ranti": 5558,
      "mati": 5559,
      "Ġsentirla": 5560,
      "Ġparto": 5561,
      "Ġcorne": 5562,
      "Ġstessi": 5563,
      "Ġgelata": 5564,
      "Ġaccompagn": 5565,
      "Ġtantissimi": 5566,
      "rito": 5567,
      "Ġotten": 5568,
      "ĠPor": 5569,
      "Ġpubb": 5570,
      "ĠIdea": 5571,
      "Ġaiutare": 5572,
      "Ġdenti": 5573,
      "Ġaprire": 5574,
      "egato": 5575,
      "Ġtecnici": 5576,
      "ĠAhahah": 5577,
      "Ġpezzetto": 5578,
      "tur": 5579,
      "Ġsven": 5580,
      "Ġcommer": 5581,
      "Ġpette": 5582,
      "Ġchili": 5583,
      "ĠFera": 5584,
      "Ġpolpetti": 5585,
      "Ġdorm": 5586,
      "Ġnessun": 5587,
      "Ġconquista": 5588,
      "Ġscorpacciata": 5589,
      "cante": 5590,
      "Ġperdendo": 5591,
      "Ġparco": 5592,
      "Ġzone": 5593,
      "Ġdiventano": 5594,
      "raghi": 5595,
      "Ġpeper": 5596,
      "Ġmagone": 5597,
      "Ġvinc": 5598,
      "Ġoffri": 5599,
      "Ġpadella": 5600,
      "Ġconfigurare": 5601,
      "auto": 5602,
      "Ġfronte": 5603,
      "matica": 5604,
      "Ġpresa": 5605,
      "Ġsce": 5606,
      "Ġcugini": 5607,
      "ĠCodice": 5608,
      "Ġincro": 5609,
      "Ġaspettavo": 5610,
      "Ġpratiche": 5611,
      "ĠBuona": 5612,
      "Ġmolecole": 5613,
      "Ġombra": 5614,
      "ey": 5615,
      "geno": 5616,
      "petta": 5617,
      "met": 5618,
      "ĠNin": 5619,
      "Ġtrovarlo": 5620,
      "Ġentri": 5621,
      "latorio": 5622,
      "Ġproteica": 5623,
      "Ġpresente": 5624,
      "Ġnervi": 5625,
      "Ġdedicato": 5626,
      "Ġplastica": 5627,
      "Ġcircolatorio": 5628,
      "mante": 5629,
      "Ġcalcola": 5630,
      "Ġstupi": 5631,
      "Ġgrafici": 5632,
      "Ġscaldano": 5633,
      "Ġmedico": 5634,
      "Ġtirava": 5635,
      "Ġassoluta": 5636,
      "Ġserviva": 5637,
      "Ġentrare": 5638,
      "ĠFilosofia": 5639,
      "Ġhey": 5640,
      "Ġpiacendo": 5641,
      "Ġincan": 5642,
      "ĠEravamo": 5643,
      "Ġdiscute": 5644,
      "Ġtavolino": 5645,
      "Ġdiritti": 5646,
      "evo": 5647,
      "ĠAgata": 5648,
      "Ġmerita": 5649,
      "Ġapprovato": 5650,
      "Ġerrore": 5651,
      "Ġfranco": 5652,
      "Ġdisti": 5653,
      "Ġmatrimonio": 5654,
      "Ġpadre": 5655,
      "Ġsaraghi": 5656,
      "mere": 5657,
      "Ġmori": 5658,
      "Ġportata": 5659,
      "Ġdiretto": 5660,
      "Ġtristi": 5661,
      "entieri": 5662,
      "ĠAlmeno": 5663,
      "zien": 5664,
      "ĠTranqui": 5665,
      "Ġpresti": 5666,
      "ĠMate": 5667,
      "Ġmoli": 5668,
      "Ġperderei": 5669,
      "Ġfossero": 5670,
      "Ġsaprei": 5671,
      "Ġdivertono": 5672,
      "Ġtorta": 5673,
      "Ġmestieri": 5674,
      "Ġinternazionale": 5675,
      "Ġdifendere": 5676,
      "abbiamo": 5677,
      "Ġstate": 5678,
      "Ġcaste": 5679,
      "Ġrigu": 5680,
      "Ġcompro": 5681,
      "mmazione": 5682,
      "Ġfreschezza": 5683,
      "Ġimpossibile": 5684,
      "Ġgiochiamo": 5685,
      "Ġpentola": 5686,
      "Ġvolentieri": 5687,
      "Ġnati": 5688,
      "Ġricostruito": 5689,
      "Ġperdermi": 5690,
      "Ġricarica": 5691,
      "Ġpettegole": 5692,
      "gere": 5693,
      "Ġj": 5694,
      "Ġfur": 5695,
      "ĠVa": 5696,
      "Ġpassando": 5697,
      "Ġlasciare": 5698,
      "Ġconsiglia": 5699,
      "Ġassurde": 5700,
      "Ġincastra": 5701,
      "Ġelettrico": 5702,
      "Ġitaliana": 5703,
      "Ġlanciandomi": 5704,
      "ĠMatematica": 5705,
      "ich": 5706,
      "Ġansia": 5707,
      "ĠVespa": 5708,
      "Ġimparo": 5709,
      "Ġpalline": 5710,
      "Ġvacanza": 5711,
      "ĠsostituirÃł": 5712,
      "icine": 5713,
      "Ġpsico": 5714,
      "Ġdanni": 5715,
      "artif": 5716,
      "Ġuff": 5717,
      "Ġromano": 5718,
      "Ġnatale": 5719,
      "Ġdiventata": 5720,
      "Ġrappres": 5721,
      "!,": 5722,
      "letta": 5723,
      "esel": 5724,
      "Ġpertur": 5725,
      "erai": 5726,
      "sato": 5727,
      "tanesi": 5728,
      "Ġtrovarli": 5729,
      "Ġavv": 5730,
      "trice": 5731,
      "Ġcertezza": 5732,
      "Ġentrava": 5733,
      "ĠDevo": 5734,
      "Ġschiatta": 5735,
      "Ġprocessore": 5736,
      "Ġpiange": 5737,
      "ĠOndina": 5738,
      "Ġcastelli": 5739,
      "artificio": 5740,
      "dente": 5741,
      "nze": 5742,
      "Ġnino": 5743,
      "Ġpochi": 5744,
      "Ġbattere": 5745,
      "ĠOttimo": 5746,
      "Ġproteggere": 5747,
      "cciole": 5748,
      "Ġcostrui": 5749,
      "Ġterremoti": 5750,
      "Ġscientifica": 5751,
      "Ġcresciuto": 5752,
      "ĠBuonasera": 5753,
      "onare": 5754,
      "erÃ²": 5755,
      "Ġfia": 5756,
      "Ġcapa": 5757,
      "Ġcatanesi": 5758,
      "Ġmandar": 5759,
      "Ġdottori": 5760,
      "Ġrendi": 5761,
      "Ġfisso": 5762,
      "Ġscade": 5763,
      "Ġinfran": 5764,
      "Ġlancio": 5765,
      "Ġfantas": 5766,
      "ĠDiceva": 5767,
      "Ġcattivo": 5768,
      "mali": 5769,
      "pere": 5770,
      "Ġdiesel": 5771,
      "Ġmaglietta": 5772,
      "Ġtene": 5773,
      "Ġnuoto": 5774,
      "Ġlibero": 5775,
      "tusia": 5776,
      "Ġscherzo": 5777,
      "Ġguadagna": 5778,
      "Ġprofessionale": 5779,
      "abb": 5780,
      "ritz": 5781,
      "Ġcasse": 5782,
      "Ġlento": 5783,
      "Ġpiaci": 5784,
      "Ġscriver": 5785,
      "ĠFu": 5786,
      "llino": 5787,
      "Ġvolete": 5788,
      "Ġprenderli": 5789,
      "impero": 5790,
      "ĠCrociferi": 5791,
      "ĠPortiamo": 5792,
      "Ġperturba": 5793,
      "Isola": 5794,
      "Ġpaghi": 5795,
      "Ġangelo": 5796,
      "Ġnodi": 5797,
      "Ġricchezza": 5798,
      "Ġchiunque": 5799,
      "Ġvisti": 5800,
      "Ġbenedizione": 5801,
      "Ġtorno": 5802,
      "eggiare": 5803,
      "cciati": 5804,
      "Ġcalama": 5805,
      "Ġminimo": 5806,
      "Ġavvis": 5807,
      "gura": 5808,
      "ĠTonino": 5809,
      "ĠSento": 5810,
      "Ġpassate": 5811,
      "Ġportarla": 5812,
      "Ġcorrenti": 5813,
      "Ġmuovere": 5814,
      "Ġsciatori": 5815,
      "Ġsciolgono": 5816,
      "Ġrinati": 5817,
      "Ġristoranti": 5818,
      "âĢĻ": 5819,
      "ĠAvevamo": 5820,
      "pini": 5821,
      "Ġmaschio": 5822,
      "Ġpersa": 5823,
      "Ġtesina": 5824,
      "ranno": 5825,
      "sioni": 5826,
      "ĠAda": 5827,
      "Ġspalle": 5828,
      "onato": 5829,
      "Ġfarle": 5830,
      "Ġingegn": 5831,
      "Ġinfi": 5832,
      "Ġbuttandoti": 5833,
      "Ġpotrei": 5834,
      "Ġtoccano": 5835,
      "fe": 5836,
      "manno": 5837,
      "yth": 5838,
      "lati": 5839,
      "ĠSenza": 5840,
      "Ġposi": 5841,
      "Ġbatt": 5842,
      "Ġbraci": 5843,
      "Ġarticolo": 5844,
      "Ġlucciole": 5845,
      "Ġtornano": 5846,
      "ngue": 5847,
      "Ġfamosa": 5848,
      "lterra": 5849,
      "Ġsicurezza": 5850,
      "Ġincarto": 5851,
      "ython": 5852,
      "ĠW": 5853,
      "Ġchef": 5854,
      "rance": 5855,
      "Ġsembro": 5856,
      "Ġpassavano": 5857,
      "Ġstesse": 5858,
      "Ġsparire": 5859,
      "ĠFer": 5860,
      "Ġcorretta": 5861,
      "Ġcorrevamo": 5862,
      "Ġfinisse": 5863,
      "Ġstanza": 5864,
      "Ġpreparano": 5865,
      "stria": 5866,
      "Ġvederlo": 5867,
      "Ġcombinato": 5868,
      "Ġdisegni": 5869,
      "miditÃł": 5870,
      "Ġcalamari": 5871,
      "messa": 5872,
      "tello": 5873,
      "rando": 5874,
      "Ġmanchi": 5875,
      "Ġspritz": 5876,
      "tteria": 5877,
      "ettare": 5878,
      "ĠNico": 5879,
      "Ġprecisi": 5880,
      "Ġpalme": 5881,
      "Ġlontana": 5882,
      "ĠNoi": 5883,
      "Ġbagnasciuga": 5884,
      "avviso": 5885,
      "dello": 5886,
      "Ġcola": 5887,
      "Ġtur": 5888,
      "Ġdosi": 5889,
      "Ġtestardo": 5890,
      "Ġandava": 5891,
      "Ġchiederti": 5892,
      "Ġfilosofo": 5893,
      "Ġcomplicatissimo": 5894,
      "Ġbronto": 5895,
      "Ġpicciriddi": 5896,
      "Ġscelta": 5897,
      "Ġrilassati": 5898,
      "Ġcarbone": 5899,
      "Ġscrivanie": 5900,
      "Ġrappresenta": 5901,
      "Ġmeren": 5902,
      "Ġporte": 5903,
      "Ġbotti": 5904,
      "Ġmeraviglioso": 5905,
      "Ġcandele": 5906,
      "ume": 5907,
      "uzione": 5908,
      "zano": 5909,
      "tate": 5910,
      "Ġconchi": 5911,
      "Ġsuono": 5912,
      "Ġvetr": 5913,
      "Ġrito": 5914,
      "Ġroma": 5915,
      "Ġlasciati": 5916,
      "Ġappuntamento": 5917,
      "Ġnaturale": 5918,
      "ĠelettricitÃł": 5919,
      "Ġdonne": 5920,
      "Ġcoprire": 5921,
      "Ġmodelli": 5922,
      "Ġrimane": 5923,
      "Ġcoprendo": 5924,
      "ĠImportante": 5925,
      "denza": 5926,
      "fer": 5927,
      "unzione": 5928,
      "ranea": 5929,
      "Ġpreavviso": 5930,
      "Ġdelf": 5931,
      "Ġguardano": 5932,
      "Ġverbi": 5933,
      "Ġpensato": 5934,
      "Ġcoraggioso": 5935,
      "lendo": 5936,
      "ĠPorto": 5937,
      "Ġsplendo": 5938,
      "Ġcortile": 5939,
      "ĠQuesto": 5940,
      "Ġcamicia": 5941,
      "Ġpesto": 5942,
      "Ġmondiali": 5943,
      "Ġdecorazioni": 5944,
      "Ġcomposi": 5945,
      "Ġbollente": 5946,
      "Ġingegneri": 5947,
      "erdÃ¬": 5948,
      "Ġfondi": 5949,
      "Ġseicento": 5950,
      "Ġdoppia": 5951,
      "ient": 5952,
      "mbre": 5953,
      "Ġlie": 5954,
      "Ġprovava": 5955,
      "Ġpartendo": 5956,
      "Ġsporc": 5957,
      "Ġtornati": 5958,
      "Ġsiciliano": 5959,
      "Ġelettrica": 5960,
      "Ġcantantessa": 5961,
      "Ġottenuto": 5962,
      "Ġsplendore": 5963,
      "lza": 5964,
      "min": 5965,
      "Ġ\"": 5966,
      "Ġpromosso": 5967,
      "Ġsentite": 5968,
      "Ġbraciola": 5969,
      "Ġmorte": 5970,
      "importa": 5971,
      "Ġavvenuta": 5972,
      "Ġfermarmi": 5973,
      "Ġattraver": 5974,
      "sk": 5975,
      "Ġsqu": 5976,
      "Ġimpi": 5977,
      "entre": 5978,
      "logie": 5979,
      "Ġsacchetto": 5980,
      "Ġlogica": 5981,
      "Ġcompilare": 5982,
      "Ġarrabbi": 5983,
      "Ġbeni": 5984,
      "Ġinvidia": 5985,
      "Ġindustria": 5986,
      "oncino": 5987,
      "ĠMentre": 5988,
      "Ġpreve": 5989,
      "Ġentusia": 5990,
      "Ġmontare": 5991,
      "ĠmaestositÃł": 5992,
      "ĠAspetta": 5993,
      "nguere": 5994,
      "ltre": 5995,
      "tela": 5996,
      "ellino": 5997,
      "Ġton": 5998,
      "ĠAngelo": 5999
    },
    "merges": [
      [
        "Ġ",
        "c"
      ],
      [
        "Ġ",
        "s"
      ],
      [
        "t",
        "e"
      ],
      [
        "Ġ",
        "m"
      ],
      [
        "r",
        "e"
      ],
      [
        "i",
        "a"
      ],
      [
        "i",
        "c"
      ],
      [
        "Ġ",
        "p"
      ],
      [
        "Ġ",
        "d"
      ],
      [
        "Ġ",
        "a"
      ],
      [
        "t",
        "a"
      ],
      [
        "o",
        "n"
      ],
      [
        "l",
        "a"
      ],
      [
        "Ġ",
        "i"
      ],
      [
        "e",
        "r"
      ],
      [
        "Ġc",
        "h"
      ],
      [
        "ic",
        "u"
      ],
      [
        "a",
        "n"
      ],
      [
        "e",
        "n"
      ],
      [
        "t",
        "o"
      ],
      [
        "Ġ",
        "n"
      ],
      [
        "u",
        "n"
      ],
      [
        "Ġch",
        "e"
      ],
      [
        "i",
        "o"
      ],
      [
        "t",
        "i"
      ],
      [
        "Ġ",
        "f"
      ],
      [
        "Ġ",
        "v"
      ],
      [
        "q",
        "u"
      ],
      [
        "Ġd",
        "i"
      ],
      [
        "Ġ",
        "un"
      ],
      [
        "Ġ",
        "qu"
      ],
      [
        "n",
        "te"
      ],
      [
        "a",
        "re"
      ],
      [
        "N",
        "icu"
      ],
      [
        "Ġ",
        "g"
      ],
      [
        "te",
        "nte"
      ],
      [
        "U",
        "tente"
      ],
      [
        "l",
        "e"
      ],
      [
        "e",
        "l"
      ],
      [
        "Ġc",
        "o"
      ],
      [
        "r",
        "a"
      ],
      [
        "Ġm",
        "a"
      ],
      [
        "r",
        "o"
      ],
      [
        "Ġ",
        "b"
      ],
      [
        "m",
        "o"
      ],
      [
        "Ġ",
        "la"
      ],
      [
        "i",
        "n"
      ],
      [
        "Ġ",
        "e"
      ],
      [
        "s",
        "c"
      ],
      [
        "l",
        "o"
      ],
      [
        "Ġ",
        "t"
      ],
      [
        "a",
        "l"
      ],
      [
        "r",
        "i"
      ],
      [
        "d",
        "o"
      ],
      [
        "Ġs",
        "e"
      ],
      [
        "Ã",
        "¨"
      ],
      [
        "a",
        "r"
      ],
      [
        "ia",
        "mo"
      ],
      [
        "e",
        "s"
      ],
      [
        "Ġi",
        "l"
      ],
      [
        "Ġi",
        "n"
      ],
      [
        "l",
        "i"
      ],
      [
        "Ġc",
        "on"
      ],
      [
        "Ġp",
        "er"
      ],
      [
        "Ġ",
        "Ã¨"
      ],
      [
        "Ġa",
        "l"
      ],
      [
        "o",
        "r"
      ],
      [
        "b",
        "are"
      ],
      [
        "Ġun",
        "a"
      ],
      [
        "Ġ",
        "M"
      ],
      [
        "Ġn",
        "icu"
      ],
      [
        "u",
        "o"
      ],
      [
        "Ġco",
        "m"
      ],
      [
        "Ġs",
        "ta"
      ],
      [
        "c",
        "c"
      ],
      [
        "s",
        "s"
      ],
      [
        "Ġf",
        "a"
      ],
      [
        "Ġ",
        "ti"
      ],
      [
        "er",
        "a"
      ],
      [
        "Ġc",
        "i"
      ],
      [
        "Ġc",
        "a"
      ],
      [
        "Ġm",
        "bare"
      ],
      [
        "Ġm",
        "i"
      ],
      [
        "Ġn",
        "on"
      ],
      [
        "Ġs",
        "o"
      ],
      [
        "Ġt",
        "u"
      ],
      [
        "Ġm",
        "ia"
      ],
      [
        "Ġ",
        "l"
      ],
      [
        "Ġco",
        "s"
      ],
      [
        "Ġg",
        "io"
      ],
      [
        "d",
        "e"
      ],
      [
        "i",
        "ta"
      ],
      [
        "g",
        "l"
      ],
      [
        "Ġ",
        "o"
      ],
      [
        "Ġ",
        "T"
      ],
      [
        "t",
        "to"
      ],
      [
        "n",
        "o"
      ],
      [
        "Ġ",
        "C"
      ],
      [
        "Ġ",
        "te"
      ],
      [
        "g",
        "ia"
      ],
      [
        "el",
        "la"
      ],
      [
        "Ġqu",
        "es"
      ],
      [
        "on",
        "o"
      ],
      [
        "Ġm",
        "e"
      ],
      [
        "Ġ",
        "le"
      ],
      [
        "c",
        "o"
      ],
      [
        "Ġs",
        "u"
      ],
      [
        "Ġp",
        "a"
      ],
      [
        "p",
        "i"
      ],
      [
        "Ġ",
        "S"
      ],
      [
        "r",
        "an"
      ],
      [
        "Ġs",
        "i"
      ],
      [
        "v",
        "a"
      ],
      [
        "c",
        "i"
      ],
      [
        "Ã",
        "¬"
      ],
      [
        "Ġgio",
        "ia"
      ],
      [
        "z",
        "z"
      ],
      [
        "s",
        "o"
      ],
      [
        "m",
        "en"
      ],
      [
        "Ġp",
        "ro"
      ],
      [
        "sc",
        "o"
      ],
      [
        "Ġm",
        "an"
      ],
      [
        "in",
        "o"
      ],
      [
        "n",
        "a"
      ],
      [
        "Ġd",
        "o"
      ],
      [
        "Ġs",
        "en"
      ],
      [
        "m",
        "p"
      ],
      [
        "Ġa",
        "n"
      ],
      [
        "Ġcom",
        "e"
      ],
      [
        "v",
        "e"
      ],
      [
        "Ġqu",
        "an"
      ],
      [
        "Ġ",
        "h"
      ],
      [
        "m",
        "a"
      ],
      [
        "i",
        "en"
      ],
      [
        "al",
        "ia"
      ],
      [
        "ic",
        "a"
      ],
      [
        "ĠT",
        "alia"
      ],
      [
        "Ġi",
        "o"
      ],
      [
        "Ġ",
        "P"
      ],
      [
        "s",
        "i"
      ],
      [
        "Ġp",
        "re"
      ],
      [
        "d",
        "i"
      ],
      [
        "v",
        "o"
      ],
      [
        "n",
        "i"
      ],
      [
        "ĠM",
        "a"
      ],
      [
        "Ġd",
        "a"
      ],
      [
        "er",
        "i"
      ],
      [
        "Ġp",
        "o"
      ],
      [
        "t",
        "ta"
      ],
      [
        "p",
        "o"
      ],
      [
        "Ġd",
        "ic"
      ],
      [
        "d",
        "a"
      ],
      [
        "s",
        "a"
      ],
      [
        "m",
        "i"
      ],
      [
        "Ġca",
        "pi"
      ],
      [
        "s",
        "ta"
      ],
      [
        "Ġs",
        "c"
      ],
      [
        "Ġv",
        "ita"
      ],
      [
        "Ġ",
        "A"
      ],
      [
        "Ġs",
        "a"
      ],
      [
        "Ġman",
        "gia"
      ],
      [
        "on",
        "do"
      ],
      [
        "gl",
        "io"
      ],
      [
        "Ġd",
        "e"
      ],
      [
        "c",
        "e"
      ],
      [
        "de",
        "re"
      ],
      [
        "Ġs",
        "ono"
      ],
      [
        "uo",
        "re"
      ],
      [
        "Ġal",
        "la"
      ],
      [
        "Ġso",
        "lo"
      ],
      [
        "t",
        "ti"
      ],
      [
        "ss",
        "i"
      ],
      [
        "Ġv",
        "e"
      ],
      [
        "Ġsen",
        "ti"
      ],
      [
        "Ġd",
        "el"
      ],
      [
        "r",
        "io"
      ],
      [
        "Ġquan",
        "do"
      ],
      [
        "gl",
        "ia"
      ],
      [
        "v",
        "i"
      ],
      [
        "Ġqu",
        "el"
      ],
      [
        "Ġ",
        "L"
      ],
      [
        "Ġb",
        "el"
      ],
      [
        "Ġg",
        "i"
      ],
      [
        "Ġfa",
        "cc"
      ],
      [
        "m",
        "un"
      ],
      [
        "on",
        "e"
      ],
      [
        "d",
        "iamo"
      ],
      [
        "Ġ",
        "r"
      ],
      [
        "g",
        "g"
      ],
      [
        "Ġm",
        "are"
      ],
      [
        "c",
        "h"
      ],
      [
        "b",
        "i"
      ],
      [
        "Ġs",
        "p"
      ],
      [
        "Ġn",
        "e"
      ],
      [
        "Ġm",
        "io"
      ],
      [
        "zz",
        "a"
      ],
      [
        "Ġse",
        "c"
      ],
      [
        "Ġse",
        "mp"
      ],
      [
        "Ġsec",
        "ondo"
      ],
      [
        "Ġp",
        "u"
      ],
      [
        "m",
        "e"
      ],
      [
        "Ġques",
        "te"
      ],
      [
        "Ġsemp",
        "re"
      ],
      [
        "Ġ",
        "ri"
      ],
      [
        "Ġp",
        "or"
      ],
      [
        "Ġp",
        "e"
      ],
      [
        "Ġh",
        "a"
      ],
      [
        "Ġqu",
        "ella"
      ],
      [
        "Ġmangia",
        "re"
      ],
      [
        "Ġ",
        "I"
      ],
      [
        "Ġn",
        "o"
      ],
      [
        "p",
        "rio"
      ],
      [
        "Ġsu",
        "l"
      ],
      [
        "Ġp",
        "i"
      ],
      [
        "ic",
        "o"
      ],
      [
        "z",
        "i"
      ],
      [
        "Ġcom",
        "p"
      ],
      [
        "Ġpro",
        "prio"
      ],
      [
        "sc",
        "i"
      ],
      [
        "Ġcapi",
        "sco"
      ],
      [
        "Ġsta",
        "re"
      ],
      [
        "Ġp",
        "ar"
      ],
      [
        "Ġqu",
        "a"
      ],
      [
        "Ġ",
        "ta"
      ],
      [
        "Ġt",
        "ro"
      ],
      [
        "g",
        "li"
      ],
      [
        "Ġg",
        "ran"
      ],
      [
        "t",
        "te"
      ],
      [
        "Ġs",
        "t"
      ],
      [
        "Ġcos",
        "a"
      ],
      [
        "Ġme",
        "glio"
      ],
      [
        "Ġb",
        "u"
      ],
      [
        "Ã",
        "ł"
      ],
      [
        "v",
        "an"
      ],
      [
        "Ġc",
        "uore"
      ],
      [
        "t",
        "ro"
      ],
      [
        "Ġtu",
        "tto"
      ],
      [
        "Ġv",
        "en"
      ],
      [
        "Ġd",
        "ella"
      ],
      [
        "Ã",
        "¹"
      ],
      [
        "Ġf",
        "are"
      ],
      [
        "in",
        "a"
      ],
      [
        "Ġv",
        "o"
      ],
      [
        "Ġf",
        "in"
      ],
      [
        "f",
        "f"
      ],
      [
        "an",
        "no"
      ],
      [
        "Ġb",
        "e"
      ],
      [
        "Ġdic",
        "e"
      ],
      [
        "s",
        "era"
      ],
      [
        "l",
        "lo"
      ],
      [
        "Ġr",
        "ic"
      ],
      [
        "in",
        "ni"
      ],
      [
        "y",
        "a"
      ],
      [
        "b",
        "b"
      ],
      [
        "la",
        "ya"
      ],
      [
        "g",
        "a"
      ],
      [
        "c",
        "a"
      ],
      [
        "Ġ",
        "G"
      ],
      [
        "mun",
        "inni"
      ],
      [
        "sc",
        "e"
      ],
      [
        "er",
        "o"
      ],
      [
        "Ġpu",
        "re"
      ],
      [
        "ic",
        "i"
      ],
      [
        "Ġ",
        "lo"
      ],
      [
        "sc",
        "ia"
      ],
      [
        "Ġv",
        "uo"
      ],
      [
        "ĠL",
        "a"
      ],
      [
        "gg",
        "i"
      ],
      [
        "m",
        "b"
      ],
      [
        "ien",
        "te"
      ],
      [
        "Ġ",
        "li"
      ],
      [
        "Ġ",
        "u"
      ],
      [
        "Ġn",
        "iente"
      ],
      [
        "Ġch",
        "i"
      ],
      [
        "n",
        "e"
      ],
      [
        "Ġcos",
        "Ã¬"
      ],
      [
        "Ġs",
        "to"
      ],
      [
        "Ġ",
        "z"
      ],
      [
        "Ġt",
        "ra"
      ],
      [
        "Ġc",
        "ar"
      ],
      [
        "Ġcos",
        "e"
      ],
      [
        "Ġv",
        "a"
      ],
      [
        "Ġ",
        "V"
      ],
      [
        "ĠI",
        "o"
      ],
      [
        "Ġpa",
        "ss"
      ],
      [
        "ĠP",
        "laya"
      ],
      [
        "Ġl",
        "Ã¬"
      ],
      [
        "s",
        "to"
      ],
      [
        "Ġsta",
        "sera"
      ],
      [
        "Ġc",
        "u"
      ],
      [
        "ien",
        "i"
      ],
      [
        "Ġp",
        "en"
      ],
      [
        "Ġf",
        "re"
      ],
      [
        "Ġ",
        "ro"
      ],
      [
        "Ġg",
        "u"
      ],
      [
        "Ã",
        "²"
      ],
      [
        "d",
        "are"
      ],
      [
        "e",
        "g"
      ],
      [
        "z",
        "a"
      ],
      [
        "men",
        "te"
      ],
      [
        "Ġh",
        "o"
      ],
      [
        "Ġgran",
        "ita"
      ],
      [
        "Ġm",
        "o"
      ],
      [
        "t",
        "t"
      ],
      [
        "h",
        "i"
      ],
      [
        "t",
        "ra"
      ],
      [
        "Ġfacc",
        "iamo"
      ],
      [
        "ĠS",
        "e"
      ],
      [
        "Ġp",
        "ia"
      ],
      [
        "ĠG",
        "io"
      ],
      [
        "on",
        "a"
      ],
      [
        "Ġde",
        "i"
      ],
      [
        "Ġse",
        "i"
      ],
      [
        "m",
        "an"
      ],
      [
        "s",
        "te"
      ],
      [
        "Ġ",
        "Ã"
      ],
      [
        "ĠÃ",
        "Ī"
      ],
      [
        "b",
        "a"
      ],
      [
        "Ġal",
        "lo"
      ],
      [
        "Ġpi",
        "Ã¹"
      ],
      [
        "Ġo",
        "ggi"
      ],
      [
        "ĠS",
        "an"
      ],
      [
        "Ġdo",
        "ve"
      ],
      [
        "Ġte",
        "sta"
      ],
      [
        "d",
        "u"
      ],
      [
        "ran",
        "c"
      ],
      [
        "en",
        "e"
      ],
      [
        "Ġbe",
        "d"
      ],
      [
        "Ġ",
        "era"
      ],
      [
        "Ġf",
        "ar"
      ],
      [
        "Ġqu",
        "al"
      ],
      [
        "t",
        "re"
      ],
      [
        "Ġc",
        "al"
      ],
      [
        "p",
        "po"
      ],
      [
        "Ġb",
        "a"
      ],
      [
        "Ġallo",
        "ra"
      ],
      [
        "Ġan",
        "diamo"
      ],
      [
        "bi",
        "to"
      ],
      [
        "Ġc",
        "er"
      ],
      [
        "ĠLa",
        "scia"
      ],
      [
        "Ġg",
        "ri"
      ],
      [
        "Ġsu",
        "bito"
      ],
      [
        "Ġ",
        "re"
      ],
      [
        "Ġvuo",
        "i"
      ],
      [
        "Ġs",
        "co"
      ],
      [
        "Ġa",
        "ranc"
      ],
      [
        "Ġpro",
        "f"
      ],
      [
        "ĠC",
        "a"
      ],
      [
        "Ġv",
        "i"
      ],
      [
        "Ġb",
        "ene"
      ],
      [
        "Ġv",
        "ieni"
      ],
      [
        "Ġgu",
        "ar"
      ],
      [
        "ĠM",
        "i"
      ],
      [
        "Ġgri",
        "glia"
      ],
      [
        "Ġf",
        "or"
      ],
      [
        "va",
        "mo"
      ],
      [
        "p",
        "p"
      ],
      [
        "Ġo",
        "h"
      ],
      [
        "Ġd",
        "al"
      ],
      [
        "li",
        "ssi"
      ],
      [
        "ch",
        "e"
      ],
      [
        "t",
        "ic"
      ],
      [
        "Ġsul",
        "la"
      ],
      [
        "t",
        "ica"
      ],
      [
        "g",
        "no"
      ],
      [
        "en",
        "te"
      ],
      [
        "Ġse",
        "mb"
      ],
      [
        "Ġgio",
        "r"
      ],
      [
        "in",
        "i"
      ],
      [
        "on",
        "i"
      ],
      [
        "Ġ",
        "ra"
      ],
      [
        "Ġz",
        "io"
      ],
      [
        "Ġper",
        "dere"
      ],
      [
        "Ġa",
        "i"
      ],
      [
        "u",
        "ti"
      ],
      [
        "Ġpor",
        "to"
      ],
      [
        "Ġques",
        "ta"
      ],
      [
        "es",
        "so"
      ],
      [
        "Ġb",
        "ra"
      ],
      [
        "Ġf",
        "i"
      ],
      [
        "Ġpre",
        "n"
      ],
      [
        "Ġtu",
        "tti"
      ],
      [
        "Ġtro",
        "ppo"
      ],
      [
        "ĠM",
        "bare"
      ],
      [
        "Ġv",
        "er"
      ],
      [
        "Ġpe",
        "sce"
      ],
      [
        "Ġa",
        "r"
      ],
      [
        "Ġaranc",
        "ino"
      ],
      [
        "Ġv",
        "ic"
      ],
      [
        "u",
        "e"
      ],
      [
        "ĠC",
        "uore"
      ],
      [
        "Ġst",
        "u"
      ],
      [
        "Ġha",
        "i"
      ],
      [
        "Ġs",
        "er"
      ],
      [
        "h",
        "e"
      ],
      [
        "f",
        "eri"
      ],
      [
        "zi",
        "one"
      ],
      [
        "i",
        "re"
      ],
      [
        "Ġdic",
        "i"
      ],
      [
        "Ġfacc",
        "io"
      ],
      [
        "Ġqua",
        "le"
      ],
      [
        "Ġgi",
        "ro"
      ],
      [
        "ta",
        "n"
      ],
      [
        "an",
        "o"
      ],
      [
        "Ġ",
        "B"
      ],
      [
        "van",
        "ni"
      ],
      [
        "Ġv",
        "ia"
      ],
      [
        "Ġso",
        "le"
      ],
      [
        "Ġve",
        "dere"
      ],
      [
        "Ġdo",
        "po"
      ],
      [
        "e",
        "re"
      ],
      [
        "Ġa",
        "m"
      ],
      [
        "d",
        "ia"
      ],
      [
        "Ġan",
        "dare"
      ],
      [
        "Ġpar",
        "la"
      ],
      [
        "Ġ",
        "D"
      ],
      [
        "Ġa",
        "d"
      ],
      [
        "g",
        "o"
      ],
      [
        "g",
        "ino"
      ],
      [
        "c",
        "ia"
      ],
      [
        "Ġver",
        "so"
      ],
      [
        "l",
        "la"
      ],
      [
        "e",
        "tta"
      ],
      [
        "Ġques",
        "to"
      ],
      [
        "ĠA",
        "muninni"
      ],
      [
        "Ġbel",
        "lissi"
      ],
      [
        "man",
        "i"
      ],
      [
        "ĠGio",
        "vanni"
      ],
      [
        "Ġ",
        "E"
      ],
      [
        "ĠA",
        "ci"
      ],
      [
        "Ġcu",
        "gino"
      ],
      [
        "ĠT",
        "u"
      ],
      [
        "Ġsco",
        "gli"
      ],
      [
        "Ġs",
        "era"
      ],
      [
        "v",
        "er"
      ],
      [
        "si",
        "e"
      ],
      [
        "sie",
        "me"
      ],
      [
        "Ġch",
        "ia"
      ],
      [
        "Ġin",
        "sieme"
      ],
      [
        "Ġcar",
        "ne"
      ],
      [
        "l",
        "ia"
      ],
      [
        "Ġc",
        "en"
      ],
      [
        "era",
        "vi"
      ],
      [
        "Ġm",
        "eravi"
      ],
      [
        "g",
        "gia"
      ],
      [
        "Ġsa",
        "i"
      ],
      [
        "sc",
        "a"
      ],
      [
        "s",
        "p"
      ],
      [
        "mun",
        "Ã¬"
      ],
      [
        "cc",
        "h"
      ],
      [
        "Ġdi",
        "men"
      ],
      [
        "Ġf",
        "es"
      ],
      [
        "Ġs",
        "iamo"
      ],
      [
        "Ġvic",
        "ino"
      ],
      [
        "Ġg",
        "li"
      ],
      [
        "bb",
        "iamo"
      ],
      [
        "u",
        "ra"
      ],
      [
        "Ġpass",
        "a"
      ],
      [
        "in",
        "g"
      ],
      [
        "Ġquan",
        "to"
      ],
      [
        "ĠC",
        "i"
      ],
      [
        "Ġric",
        "or"
      ],
      [
        "Ġper",
        "Ã²"
      ],
      [
        "Ġf",
        "anno"
      ],
      [
        "Ġtu",
        "tta"
      ],
      [
        "Ġmeravi",
        "glia"
      ],
      [
        "Ġpre",
        "feri"
      ],
      [
        "Ġd",
        "ue"
      ],
      [
        "Ã",
        "©"
      ],
      [
        "t",
        "Ãł"
      ],
      [
        "Ġques",
        "ti"
      ],
      [
        "Ġn",
        "u"
      ],
      [
        "t",
        "na"
      ],
      [
        "Ġdo",
        "mani"
      ],
      [
        "ta",
        "re"
      ],
      [
        "Ġg",
        "o"
      ],
      [
        "co",
        "ra"
      ],
      [
        "ch",
        "Ã©"
      ],
      [
        "men",
        "o"
      ],
      [
        "Ġm",
        "en"
      ],
      [
        "p",
        "a"
      ],
      [
        "Ġquel",
        "le"
      ],
      [
        "Ġa",
        "muninni"
      ],
      [
        "Ġgriglia",
        "ta"
      ],
      [
        ".",
        "."
      ],
      [
        "m",
        "mi"
      ],
      [
        "Ġan",
        "cora"
      ],
      [
        "qu",
        "a"
      ],
      [
        "zz",
        "o"
      ],
      [
        "Ġdice",
        "va"
      ],
      [
        "Ġm",
        "u"
      ],
      [
        "co",
        "lo"
      ],
      [
        "r",
        "ia"
      ],
      [
        "tan",
        "ia"
      ],
      [
        "Ġstu",
        "dia"
      ],
      [
        "u",
        "mo"
      ],
      [
        "co",
        "sa"
      ],
      [
        "Ġi",
        "mp"
      ],
      [
        "Ġqual",
        "cosa"
      ],
      [
        "Ġm",
        "ondo"
      ],
      [
        "Ġv",
        "era"
      ],
      [
        "Ġcomp",
        "are"
      ],
      [
        "Ġi",
        "eri"
      ],
      [
        "na",
        "ta"
      ],
      [
        "Ġro",
        "ba"
      ],
      [
        "Ġdimen",
        "tic"
      ],
      [
        "Ġper",
        "chÃ©"
      ],
      [
        "Ġ",
        "to"
      ],
      [
        "Ġn",
        "uo"
      ],
      [
        "c",
        "qua"
      ],
      [
        "Ġpa",
        "sta"
      ],
      [
        "cc",
        "o"
      ],
      [
        "Ġsemb",
        "ra"
      ],
      [
        "Ġven",
        "ire"
      ],
      [
        "Ġpor",
        "ta"
      ],
      [
        "Ġric",
        "ci"
      ],
      [
        "Ġbra",
        "ce"
      ],
      [
        "Ġ",
        "U"
      ],
      [
        "l",
        "le"
      ],
      [
        "sc",
        "iamo"
      ],
      [
        "Ġco",
        "r"
      ],
      [
        "el",
        "o"
      ],
      [
        "Ġvo",
        "l"
      ],
      [
        "r",
        "u"
      ],
      [
        "s",
        "ica"
      ],
      [
        "Ġpen",
        "s"
      ],
      [
        "Ġs",
        "al"
      ],
      [
        "Ġl",
        "u"
      ],
      [
        "ĠC",
        "o"
      ],
      [
        "Ġscogli",
        "era"
      ],
      [
        "Ġnon",
        "na"
      ],
      [
        "Ġta",
        "lia"
      ],
      [
        "ĠC",
        "uti"
      ],
      [
        "Ġbed",
        "du"
      ],
      [
        "d",
        "er"
      ],
      [
        "ss",
        "a"
      ],
      [
        "Ġam",
        "ici"
      ],
      [
        "Ġfa",
        "tto"
      ],
      [
        "Ġb",
        "ar"
      ],
      [
        "Ġdal",
        "la"
      ],
      [
        "Ġb",
        "ella"
      ],
      [
        "ien",
        "e"
      ],
      [
        "Ġg",
        "ente"
      ],
      [
        "s",
        "ti"
      ],
      [
        "Ġtu",
        "ff"
      ],
      [
        "Ġdel",
        "l"
      ],
      [
        "Ġno",
        "i"
      ],
      [
        "ve",
        "ce"
      ],
      [
        "Ġf",
        "o"
      ],
      [
        "Ġpa",
        "ro"
      ],
      [
        "Ġgior",
        "nata"
      ],
      [
        "Ġfa",
        "i"
      ],
      [
        "ĠCa",
        "tania"
      ],
      [
        "Ġco",
        "l"
      ],
      [
        "Ġan",
        "da"
      ],
      [
        "Ġin",
        "vece"
      ],
      [
        "Ġmen",
        "tre"
      ],
      [
        "s",
        "e"
      ],
      [
        "Ġno",
        "s"
      ],
      [
        "Ġsen",
        "za"
      ],
      [
        "ste",
        "llo"
      ],
      [
        "Ġbed",
        "da"
      ],
      [
        "l",
        "ica"
      ],
      [
        "tti",
        "na"
      ],
      [
        "Ġqu",
        "i"
      ],
      [
        "Ġar",
        "ri"
      ],
      [
        "Ġpreferi",
        "sco"
      ],
      [
        "Ġin",
        "c"
      ],
      [
        "ĠM",
        "ia"
      ],
      [
        "v",
        "al"
      ],
      [
        "Ġdi",
        "mmi"
      ],
      [
        "Ġda",
        "i"
      ],
      [
        "Ġde",
        "vo"
      ],
      [
        "Ġcomp",
        "lica"
      ],
      [
        "Ġcon",
        "o"
      ],
      [
        "Ġfes",
        "ta"
      ],
      [
        "ia",
        "o"
      ],
      [
        "Ġpre",
        "pa"
      ],
      [
        "m",
        "eri"
      ],
      [
        "ss",
        "o"
      ],
      [
        "Ġcen",
        "tro"
      ],
      [
        "Ġsta",
        "i"
      ],
      [
        "Ġpo",
        "sto"
      ],
      [
        "Ġricor",
        "di"
      ],
      [
        "Ġp",
        "ri"
      ],
      [
        "Ġn",
        "el"
      ],
      [
        "Ġpo",
        "i"
      ],
      [
        "ra",
        "te"
      ],
      [
        "Ġbel",
        "le"
      ],
      [
        "en",
        "do"
      ],
      [
        "Ġpia",
        "tto"
      ],
      [
        "Ġs",
        "te"
      ],
      [
        "c",
        "io"
      ],
      [
        "Ġli",
        "b"
      ],
      [
        "s",
        "eg"
      ],
      [
        "Ġs",
        "pi"
      ],
      [
        "sci",
        "to"
      ],
      [
        "bi",
        "le"
      ],
      [
        "g",
        "ra"
      ],
      [
        "Ġsp",
        "ia"
      ],
      [
        "Ġma",
        "i"
      ],
      [
        "Ġa",
        "bbiamo"
      ],
      [
        "Ġta",
        "n"
      ],
      [
        "Ġsen",
        "to"
      ],
      [
        "Ġpa",
        "ssi"
      ],
      [
        "Ġvol",
        "ta"
      ],
      [
        "Ġsc",
        "ri"
      ],
      [
        "r",
        "are"
      ],
      [
        "a",
        "m"
      ],
      [
        "h",
        "a"
      ],
      [
        "Ġde",
        "vi"
      ],
      [
        "an",
        "do"
      ],
      [
        "an",
        "te"
      ],
      [
        "u",
        "sa"
      ],
      [
        "Ġve",
        "do"
      ],
      [
        "Ġba",
        "gno"
      ],
      [
        "g",
        "n"
      ],
      [
        "Ġl",
        "un"
      ],
      [
        "Ġi",
        "nte"
      ],
      [
        "ĠV",
        "ita"
      ],
      [
        "u",
        "te"
      ],
      [
        "Ġla",
        "scia"
      ],
      [
        "Ġspia",
        "ggia"
      ],
      [
        "Ġfin",
        "e"
      ],
      [
        "Ġ",
        "N"
      ],
      [
        "n",
        "do"
      ],
      [
        "l",
        "ini"
      ],
      [
        "Ġh",
        "anno"
      ],
      [
        "Ġbellissi",
        "ma"
      ],
      [
        "u",
        "a"
      ],
      [
        "si",
        "one"
      ],
      [
        "Ġ",
        "Q"
      ],
      [
        "men",
        "ti"
      ],
      [
        "am",
        "ico"
      ],
      [
        "r",
        "la"
      ],
      [
        "Ġcapi",
        "re"
      ],
      [
        "on",
        "ta"
      ],
      [
        "Ġin",
        "seg"
      ],
      [
        "Ġbar",
        "ca"
      ],
      [
        "Ġf",
        "er"
      ],
      [
        "Ġfre",
        "sco"
      ],
      [
        "z",
        "ia"
      ],
      [
        "Ġfar",
        "ci"
      ],
      [
        "zz",
        "e"
      ],
      [
        "Ġnu",
        "meri"
      ],
      [
        "a",
        "cqua"
      ],
      [
        "g",
        "i"
      ],
      [
        "Ġs",
        "an"
      ],
      [
        "Ġ",
        "on"
      ],
      [
        "Ġprof",
        "esso"
      ],
      [
        "Ġsp",
        "a"
      ],
      [
        "le",
        "bi"
      ],
      [
        "lebi",
        "scito"
      ],
      [
        "Ġca",
        "sa"
      ],
      [
        "E",
        "tna"
      ],
      [
        "Ġpri",
        "ma"
      ],
      [
        "Ġun",
        "o"
      ],
      [
        "Ġquel",
        "li"
      ],
      [
        "Ġma",
        "l"
      ],
      [
        "Ġa",
        "pp"
      ],
      [
        "cc",
        "a"
      ],
      [
        "men",
        "to"
      ],
      [
        "g",
        "na"
      ],
      [
        "Ġmu",
        "sica"
      ],
      [
        "van",
        "ti"
      ],
      [
        "ĠQ",
        "u"
      ],
      [
        "Ġ",
        "O"
      ],
      [
        "Ġf",
        "rate"
      ],
      [
        "en",
        "a"
      ],
      [
        "Ġc",
        "iao"
      ],
      [
        "ĠS",
        "ta"
      ],
      [
        "zz",
        "i"
      ],
      [
        "val",
        "lo"
      ],
      [
        "Ġfrate",
        "llo"
      ],
      [
        "e",
        "i"
      ],
      [
        "er",
        "ia"
      ],
      [
        "ĠM",
        "io"
      ],
      [
        "Ġf",
        "un"
      ],
      [
        "Ġa",
        "cc"
      ],
      [
        "Ġ",
        "ero"
      ],
      [
        "Ġte",
        "mp"
      ],
      [
        "Ġda",
        "vanti"
      ],
      [
        "Ġsc",
        "uo"
      ],
      [
        "Ġtro",
        "v"
      ],
      [
        "Ġfre",
        "sca"
      ],
      [
        "Ġ",
        "F"
      ],
      [
        "Ġdi",
        "e"
      ],
      [
        "Ġve",
        "diamo"
      ],
      [
        "Ġbu",
        "ona"
      ],
      [
        "al",
        "mente"
      ],
      [
        "l",
        "u"
      ],
      [
        "Ġon",
        "de"
      ],
      [
        "Ġscuo",
        "la"
      ],
      [
        "Ġbelle",
        "zza"
      ],
      [
        "ss",
        "e"
      ],
      [
        "Ġguar",
        "dare"
      ],
      [
        "Ġcapi",
        "sci"
      ],
      [
        "Ġca",
        "vallo"
      ],
      [
        "van",
        "o"
      ],
      [
        "g",
        "ni"
      ],
      [
        "ĠP",
        "er"
      ],
      [
        "Ġchi",
        "e"
      ],
      [
        "ĠA",
        "munÃ¬"
      ],
      [
        "Ġcon",
        "f"
      ],
      [
        "Ġa",
        "munÃ¬"
      ],
      [
        "Ġl",
        "ing"
      ],
      [
        "Ġpre",
        "so"
      ],
      [
        "al",
        "la"
      ],
      [
        "Ġb",
        "rio"
      ],
      [
        "ĠGio",
        "ia"
      ],
      [
        "Ġma",
        "tto"
      ],
      [
        "Ġbrio",
        "che"
      ],
      [
        "Ġfun",
        "zi"
      ],
      [
        "Ġpi",
        "e"
      ],
      [
        "ic",
        "e"
      ],
      [
        "eg",
        "gia"
      ],
      [
        "Ġal",
        "l"
      ],
      [
        "l",
        "li"
      ],
      [
        "Ġsp",
        "etta"
      ],
      [
        "ran",
        "o"
      ],
      [
        "e",
        "d"
      ],
      [
        "Ġven",
        "iamo"
      ],
      [
        "Ġsa",
        "p"
      ],
      [
        "v",
        "en"
      ],
      [
        "es",
        "ti"
      ],
      [
        "ĠP",
        "lebiscito"
      ],
      [
        "Ġdi",
        "ver"
      ],
      [
        "in",
        "e"
      ],
      [
        "Ġsc",
        "or"
      ],
      [
        "Ġsto",
        "ria"
      ],
      [
        "Ġlib",
        "ri"
      ],
      [
        "Ġmi",
        "glio"
      ],
      [
        "Ġsp",
        "e"
      ],
      [
        "Ġcor",
        "re"
      ],
      [
        "Ġstudia",
        "re"
      ],
      [
        "or",
        "ma"
      ],
      [
        "Ġfin",
        "almente"
      ],
      [
        "to",
        "ri"
      ],
      [
        "Ġprofesso",
        "ri"
      ],
      [
        "Ġpass",
        "eggia"
      ],
      [
        "ch",
        "i"
      ],
      [
        "ssi",
        "mo"
      ],
      [
        "Ġsera",
        "ta"
      ],
      [
        "d",
        "re"
      ],
      [
        "Ġfin",
        "i"
      ],
      [
        "ga",
        "ta"
      ],
      [
        "p",
        "ra"
      ],
      [
        "tta",
        "mente"
      ],
      [
        "tt",
        "iamo"
      ],
      [
        "a",
        "i"
      ],
      [
        "Ġb",
        "i"
      ],
      [
        "Ġf",
        "uo"
      ],
      [
        "Ġcal",
        "do"
      ],
      [
        "Ġtemp",
        "o"
      ],
      [
        "Ġso",
        "pra"
      ],
      [
        "Ġspetta",
        "colo"
      ],
      [
        "..",
        "."
      ],
      [
        "Ġra",
        "ga"
      ],
      [
        "Ġdo",
        "l"
      ],
      [
        "cc",
        "hi"
      ],
      [
        "m",
        "meno"
      ],
      [
        "Ġsta",
        "ta"
      ],
      [
        "Ġp",
        "ic"
      ],
      [
        "Ġprof",
        "umo"
      ],
      [
        "m",
        "ina"
      ],
      [
        "t",
        "iamo"
      ],
      [
        "Ġma",
        "cch"
      ],
      [
        "Ġquel",
        "lo"
      ],
      [
        "Ġbel",
        "lo"
      ],
      [
        "Ġsc",
        "a"
      ],
      [
        "Ġne",
        "mmeno"
      ],
      [
        "Ġte",
        "r"
      ],
      [
        "Ġser",
        "ve"
      ],
      [
        "Ġgior",
        "no"
      ],
      [
        "Ġste",
        "lle"
      ],
      [
        "tre",
        "zza"
      ],
      [
        "Ġparla",
        "re"
      ],
      [
        "s",
        "ino"
      ],
      [
        "v",
        "ero"
      ],
      [
        "Ġdel",
        "le"
      ],
      [
        "gg",
        "io"
      ],
      [
        "de",
        "a"
      ],
      [
        "cc",
        "ia"
      ],
      [
        "on",
        "to"
      ],
      [
        "Ġnos",
        "tra"
      ],
      [
        "ma",
        "ttina"
      ],
      [
        "Ġcono",
        "sco"
      ],
      [
        "Ġbu",
        "ono"
      ],
      [
        "ĠL",
        "i"
      ],
      [
        "or",
        "ta"
      ],
      [
        "Ġpasseggia",
        "ta"
      ],
      [
        "Ġapp",
        "ena"
      ],
      [
        "d",
        "ra"
      ],
      [
        "Ġma",
        "dre"
      ],
      [
        "Ġqua",
        "si"
      ],
      [
        "tt",
        "Ãł"
      ],
      [
        "Ġci",
        "ttÃł"
      ],
      [
        "qu",
        "i"
      ],
      [
        "ar",
        "ci"
      ],
      [
        "Ġ",
        "Nicu"
      ],
      [
        "ĠC",
        "he"
      ],
      [
        "Ġsa",
        "le"
      ],
      [
        "Ġv",
        "ero"
      ],
      [
        "lo",
        "gia"
      ],
      [
        "re",
        "a"
      ],
      [
        "re",
        "di"
      ],
      [
        "an",
        "i"
      ],
      [
        "u",
        "to"
      ],
      [
        "Ġpren",
        "diamo"
      ],
      [
        "ĠCo",
        "me"
      ],
      [
        "Ġvo",
        "glia"
      ],
      [
        "Ġsenti",
        "re"
      ],
      [
        "ĠS",
        "i"
      ],
      [
        "Ġs",
        "ar"
      ],
      [
        "Ġla",
        "vo"
      ],
      [
        "Ġst",
        "ran"
      ],
      [
        "Ġ",
        "or"
      ],
      [
        "Ġtu",
        "tte"
      ],
      [
        "Ġgran",
        "de"
      ],
      [
        "Ġcomplica",
        "te"
      ],
      [
        "mp",
        "a"
      ],
      [
        "Ġconf",
        "u"
      ],
      [
        "Ġdic",
        "o"
      ],
      [
        "ff",
        "ici"
      ],
      [
        "bb",
        "ia"
      ],
      [
        "Ġb",
        "alla"
      ],
      [
        "Ġs",
        "Ã¬"
      ],
      [
        "Ġb",
        "an"
      ],
      [
        "ĠS",
        "ono"
      ],
      [
        "Ġsu",
        "i"
      ],
      [
        "u",
        "r"
      ],
      [
        "uo",
        "mo"
      ],
      [
        "Ġdi",
        "re"
      ],
      [
        "Ġarri",
        "va"
      ],
      [
        "Ġal",
        "le"
      ],
      [
        "Ġ",
        "en"
      ],
      [
        "Ġla",
        "sciamo"
      ],
      [
        "Ġchia",
        "mi"
      ],
      [
        "Ġa",
        "sp"
      ],
      [
        "Ġva",
        "i"
      ],
      [
        "sc",
        "h"
      ],
      [
        "Ġme",
        "ttiamo"
      ],
      [
        "t",
        "ura"
      ],
      [
        "ve",
        "re"
      ],
      [
        "ĠV",
        "ieni"
      ],
      [
        "Ġguar",
        "da"
      ],
      [
        "Ġfunzi",
        "ona"
      ],
      [
        "Ġst",
        "ra"
      ],
      [
        "Ġsta",
        "mattina"
      ],
      [
        "Ġai",
        "uti"
      ],
      [
        "Ġc",
        "an"
      ],
      [
        "Ġma",
        "le"
      ],
      [
        "Ġcon",
        "v"
      ],
      [
        "ĠT",
        "i"
      ],
      [
        "in",
        "di"
      ],
      [
        "ĠAci",
        "trezza"
      ],
      [
        "Ġvuo",
        "le"
      ],
      [
        "ĠCa",
        "stello"
      ],
      [
        "Ġlu",
        "i"
      ],
      [
        "Ġcos",
        "ta"
      ],
      [
        "Ġparo",
        "le"
      ],
      [
        "Ġinc",
        "redi"
      ],
      [
        "Ġpen",
        "si"
      ],
      [
        "Ġso",
        "tto"
      ],
      [
        "Ġv",
        "iene"
      ],
      [
        "e",
        "tto"
      ],
      [
        "r",
        "ti"
      ],
      [
        "m",
        "ma"
      ],
      [
        "Ġsul",
        "l"
      ],
      [
        "es",
        "e"
      ],
      [
        "Ġb",
        "or"
      ],
      [
        "Ġfre",
        "sc"
      ],
      [
        "ar",
        "ia"
      ],
      [
        "ĠM",
        "e"
      ],
      [
        "Ġt",
        "re"
      ],
      [
        "Ġgi",
        "Ãł"
      ],
      [
        "Ġprepa",
        "ra"
      ],
      [
        "Ġconfu",
        "sione"
      ],
      [
        "Ġme",
        "zzo"
      ],
      [
        "v",
        "vero"
      ],
      [
        "Ġr",
        "umo"
      ],
      [
        "tte",
        "re"
      ],
      [
        "ri",
        "e"
      ],
      [
        "Ġqu",
        "indi"
      ],
      [
        "ĠB",
        "ed"
      ],
      [
        "Ġdi",
        "ven"
      ],
      [
        "Ġco",
        "d"
      ],
      [
        "ĠB",
        "el"
      ],
      [
        "Ġso",
        "l"
      ],
      [
        "Ġf",
        "ino"
      ],
      [
        "Ġvi",
        "sto"
      ],
      [
        "Ġspe",
        "cia"
      ],
      [
        "r",
        "mi"
      ],
      [
        "Ġbellissi",
        "mo"
      ],
      [
        "Ġda",
        "vvero"
      ],
      [
        "ran",
        "qui"
      ],
      [
        "es",
        "tra"
      ],
      [
        "Ġi",
        "dea"
      ],
      [
        "en",
        "za"
      ],
      [
        "h",
        "iamo"
      ],
      [
        "Ġnon",
        "no"
      ],
      [
        "c",
        "are"
      ],
      [
        "e",
        "tna"
      ],
      [
        "Ġgi",
        "rare"
      ],
      [
        "Ġrumo",
        "re"
      ],
      [
        "Ġdi",
        "ffici"
      ],
      [
        "ĠV",
        "ai"
      ],
      [
        "zi",
        "oni"
      ],
      [
        "Ġt",
        "ri"
      ],
      [
        "Ġincredi",
        "bile"
      ],
      [
        "Ġt",
        "uo"
      ],
      [
        "Ġin",
        "g"
      ],
      [
        "Ġd",
        "ri"
      ],
      [
        "Ġpe",
        "sci"
      ],
      [
        "es",
        "a"
      ],
      [
        "Ġo",
        "ra"
      ],
      [
        "Ġt",
        "ranqui"
      ],
      [
        "Ġtuff",
        "o"
      ],
      [
        "Ġconv",
        "iene"
      ],
      [
        "r",
        "no"
      ],
      [
        "t",
        "ru"
      ],
      [
        "m",
        "are"
      ],
      [
        "Ġimp",
        "a"
      ],
      [
        "ĠPer",
        "Ã²"
      ],
      [
        "m",
        "u"
      ],
      [
        "Ġfin",
        "estra"
      ],
      [
        "g",
        "io"
      ],
      [
        "t",
        "ri"
      ],
      [
        "Ġanda",
        "ta"
      ],
      [
        "Ġqu",
        "ei"
      ],
      [
        "Ġfor",
        "te"
      ],
      [
        "Ġin",
        "f"
      ],
      [
        "ssi",
        "ma"
      ],
      [
        "Ġsol",
        "di"
      ],
      [
        "Ġspi",
        "eg"
      ],
      [
        "Ġsu",
        "cc"
      ],
      [
        "Ġpia",
        "ce"
      ],
      [
        "ar",
        "mi"
      ],
      [
        "ĠMe",
        "glio"
      ],
      [
        "ĠU",
        "na"
      ],
      [
        "Ġgi",
        "Ã¹"
      ],
      [
        "Ġpens",
        "are"
      ],
      [
        "un",
        "ica"
      ],
      [
        "Ġn",
        "a"
      ],
      [
        "Ġa",
        "ss"
      ],
      [
        "Ġg",
        "ra"
      ],
      [
        "Ġf",
        "el"
      ],
      [
        "Ġe",
        "h"
      ],
      [
        "or",
        "mina"
      ],
      [
        "Ġquan",
        "ti"
      ],
      [
        "ute",
        "r"
      ],
      [
        "Ġera",
        "vamo"
      ],
      [
        "re",
        "zza"
      ],
      [
        "ic",
        "he"
      ],
      [
        "Ġcen",
        "a"
      ],
      [
        "Ġpe",
        "sca"
      ],
      [
        "Ġpu",
        "ra"
      ],
      [
        "Ġv",
        "elo"
      ],
      [
        "Ġsul",
        "le"
      ],
      [
        "Ġg",
        "e"
      ],
      [
        "Ġfa",
        "ce"
      ],
      [
        "Ġca",
        "m"
      ],
      [
        "Ġdo",
        "bbiamo"
      ],
      [
        "Ġb",
        "o"
      ],
      [
        "lli",
        "g"
      ],
      [
        "Ġgo",
        "der"
      ],
      [
        "Ġsta",
        "vo"
      ],
      [
        "Ġsc",
        "usa"
      ],
      [
        "Ġ",
        "R"
      ],
      [
        "na",
        "to"
      ],
      [
        "Ġd",
        "en"
      ],
      [
        "Ġg",
        "ita"
      ],
      [
        "an",
        "ti"
      ],
      [
        "Ġfes",
        "te"
      ],
      [
        "Ġca",
        "stello"
      ],
      [
        "Ġsto",
        "rie"
      ],
      [
        "Ġle",
        "i"
      ],
      [
        "Ġcer",
        "ca"
      ],
      [
        "Ġs",
        "ci"
      ],
      [
        "Ġca",
        "p"
      ],
      [
        "el",
        "lo"
      ],
      [
        "Ġcar",
        "te"
      ],
      [
        "Ġto",
        "r"
      ],
      [
        "ĠP",
        "o"
      ],
      [
        "Ġmacch",
        "ina"
      ],
      [
        "ĠI",
        "l"
      ],
      [
        "al",
        "i"
      ],
      [
        "Ġgi",
        "g"
      ],
      [
        "Ġtra",
        "m"
      ],
      [
        "Ġe",
        "sa"
      ],
      [
        "Ġfacc",
        "ia"
      ],
      [
        "Ġpar",
        "ti"
      ],
      [
        "o",
        "po"
      ],
      [
        "p",
        "e"
      ],
      [
        "Ġbu",
        "tta"
      ],
      [
        "Ġgo",
        "diamo"
      ],
      [
        "Ġn",
        "orma"
      ],
      [
        "Ġcomp",
        "a"
      ],
      [
        "ga",
        "ri"
      ],
      [
        "Ġcon",
        "ti"
      ],
      [
        "Ġper",
        "f"
      ],
      [
        "en",
        "o"
      ],
      [
        "Ġtri",
        "ste"
      ],
      [
        "Ġpen",
        "sa"
      ],
      [
        "Ġa",
        "p"
      ],
      [
        "ic",
        "io"
      ],
      [
        "Ġchie",
        "di"
      ],
      [
        "Ġle",
        "gg"
      ],
      [
        "Ġden",
        "tro"
      ],
      [
        "Ġsc",
        "en"
      ],
      [
        "v",
        "ono"
      ],
      [
        "bb",
        "e"
      ],
      [
        "s",
        "tica"
      ],
      [
        "dra",
        "i"
      ],
      [
        "Ġz",
        "ia"
      ],
      [
        "ĠE",
        "ra"
      ],
      [
        "Ġri",
        "dere"
      ],
      [
        "sch",
        "eria"
      ],
      [
        "d",
        "io"
      ],
      [
        "Ġtram",
        "onto"
      ],
      [
        "Ġling",
        "ua"
      ],
      [
        "Ġve",
        "drai"
      ],
      [
        "Ġmangia",
        "to"
      ],
      [
        "Ġpo",
        "l"
      ],
      [
        "Ġam",
        "ico"
      ],
      [
        "Ġe",
        "ss"
      ],
      [
        "Ġp",
        "an"
      ],
      [
        "Ġ",
        "w"
      ],
      [
        "Ġgi",
        "u"
      ],
      [
        "Ġpa",
        "ura"
      ],
      [
        "ĠSan",
        "ta"
      ],
      [
        "le",
        "se"
      ],
      [
        "t",
        "u"
      ],
      [
        "Ġsta",
        "n"
      ],
      [
        "Ġcomp",
        "uter"
      ],
      [
        "ĠU",
        "n"
      ],
      [
        "Ġser",
        "ia"
      ],
      [
        "Ġsta",
        "to"
      ],
      [
        "Ġf",
        "ri"
      ],
      [
        "co",
        "li"
      ],
      [
        "Ġlavo",
        "ro"
      ],
      [
        "Ġmiglio",
        "re"
      ],
      [
        "Ġre",
        "s"
      ],
      [
        "l",
        "to"
      ],
      [
        "Ġprepa",
        "ro"
      ],
      [
        "e",
        "ga"
      ],
      [
        "Ġsenti",
        "to"
      ],
      [
        "Ġstra",
        "da"
      ],
      [
        "ĠTu",
        "tto"
      ],
      [
        "Ġdol",
        "ce"
      ],
      [
        "m",
        "ica"
      ],
      [
        "Ġu",
        "sci"
      ],
      [
        "Ġe",
        "d"
      ],
      [
        "ggia",
        "re"
      ],
      [
        "orta",
        "nte"
      ],
      [
        "Ġc",
        "ro"
      ],
      [
        "ff",
        "icio"
      ],
      [
        "Ġba",
        "sta"
      ],
      [
        "Ġven",
        "to"
      ],
      [
        "Ġu",
        "rla"
      ],
      [
        "Ġa",
        "cqua"
      ],
      [
        "Ġc",
        "ri"
      ],
      [
        "Ġco",
        "zze"
      ],
      [
        "Ġr",
        "ico"
      ],
      [
        "f",
        "ia"
      ],
      [
        "Ġg",
        "en"
      ],
      [
        "Ġra",
        "cc"
      ],
      [
        "Ġpia",
        "zza"
      ],
      [
        "Ġma",
        "te"
      ],
      [
        "Ġa",
        "v"
      ],
      [
        "Ġn",
        "ella"
      ],
      [
        "Ġpar",
        "li"
      ],
      [
        "s",
        "ic"
      ],
      [
        "Ġtan",
        "ta"
      ],
      [
        "Ġmo",
        "to"
      ],
      [
        "ta",
        "le"
      ],
      [
        "Ġte",
        "c"
      ],
      [
        "t",
        "ne"
      ],
      [
        "es",
        "ta"
      ],
      [
        "ĠT",
        "a"
      ],
      [
        "Ġv",
        "eri"
      ],
      [
        "Ġparo",
        "la"
      ],
      [
        "u",
        "ta"
      ],
      [
        "er",
        "ta"
      ],
      [
        "Ġsal",
        "sic"
      ],
      [
        "qu",
        "e"
      ],
      [
        "f",
        "i"
      ],
      [
        "Ġf",
        "u"
      ],
      [
        "ĠSta",
        "sera"
      ],
      [
        "Ġpren",
        "dere"
      ],
      [
        "Ġri",
        "e"
      ],
      [
        "Ġsc",
        "al"
      ],
      [
        "ĠTa",
        "ormina"
      ],
      [
        "li",
        "menti"
      ],
      [
        "u",
        "tto"
      ],
      [
        "Ġess",
        "ere"
      ],
      [
        "cch",
        "io"
      ],
      [
        "ar",
        "lo"
      ],
      [
        "Ġdimentic",
        "hi"
      ],
      [
        "Ġcon",
        "tare"
      ],
      [
        "Ġfor",
        "za"
      ],
      [
        "Ġde",
        "ve"
      ],
      [
        "a",
        "cc"
      ],
      [
        "Ġsta",
        "ti"
      ],
      [
        "Ġse",
        "g"
      ],
      [
        "Ġp",
        "are"
      ],
      [
        "Ġcer",
        "to"
      ],
      [
        "Ġm",
        "er"
      ],
      [
        "ĠA",
        "n"
      ],
      [
        "ra",
        "c"
      ],
      [
        "zi",
        "e"
      ],
      [
        "Ġdimentic",
        "are"
      ],
      [
        "rac",
        "usa"
      ],
      [
        "Ġasp",
        "etta"
      ],
      [
        "Ġma",
        "tti"
      ],
      [
        "Ġf",
        "eno"
      ],
      [
        "e",
        "le"
      ],
      [
        "Ġa",
        "ve"
      ],
      [
        "Ġesa",
        "ttamente"
      ],
      [
        "v",
        "esti"
      ],
      [
        "pp",
        "e"
      ],
      [
        "Ġcosta",
        "ta"
      ],
      [
        "li",
        "tica"
      ],
      [
        "ĠP",
        "e"
      ],
      [
        "Ġca",
        "sino"
      ],
      [
        "Ġci",
        "elo"
      ],
      [
        "Ġcon",
        "si"
      ],
      [
        "gli",
        "oni"
      ],
      [
        "Ġin",
        "i"
      ],
      [
        "Ġso",
        "re"
      ],
      [
        "icu",
        "ra"
      ],
      [
        "tne",
        "a"
      ],
      [
        "Ġfeno",
        "meno"
      ],
      [
        "ra",
        "glioni"
      ],
      [
        "la",
        "n"
      ],
      [
        "Ġsore",
        "lla"
      ],
      [
        "Ġres",
        "pi"
      ],
      [
        "men",
        "ica"
      ],
      [
        "Ġrico",
        "tta"
      ],
      [
        "Ġcu",
        "c"
      ],
      [
        "rea",
        "le"
      ],
      [
        "Ġspi",
        "ega"
      ],
      [
        "Ġimp",
        "ortante"
      ],
      [
        "t",
        "ico"
      ],
      [
        "Ġpie",
        "tra"
      ],
      [
        "Ġsan",
        "t"
      ],
      [
        "Ġsalsic",
        "cia"
      ],
      [
        "mo",
        "zione"
      ],
      [
        "Ġfresc",
        "hi"
      ],
      [
        "Ġman",
        "co"
      ],
      [
        "g",
        "ani"
      ],
      [
        "Ġs",
        "ia"
      ],
      [
        "Ġsa",
        "cco"
      ],
      [
        "Ġma",
        "gari"
      ],
      [
        "ĠD",
        "uomo"
      ],
      [
        "en",
        "ti"
      ],
      [
        "Ġa",
        "ha"
      ],
      [
        "Ġmo",
        "lto"
      ],
      [
        "Ġcal",
        "da"
      ],
      [
        "Ġma",
        "ttina"
      ],
      [
        "Ġfa",
        "me"
      ],
      [
        "Ġtro",
        "vi"
      ],
      [
        "gn",
        "ina"
      ],
      [
        "Ġper",
        "so"
      ],
      [
        "Ġspa",
        "zza"
      ],
      [
        "Ġnuo",
        "tare"
      ],
      [
        "Ġo",
        "gni"
      ],
      [
        "Ġser",
        "io"
      ],
      [
        "Ġfi",
        "sica"
      ],
      [
        "un",
        "a"
      ],
      [
        "Ġor",
        "gani"
      ],
      [
        "Ġlu",
        "ce"
      ],
      [
        "Ġbor",
        "sa"
      ],
      [
        "l",
        "mente"
      ],
      [
        "Ġchi",
        "mica"
      ],
      [
        "Ġve",
        "de"
      ],
      [
        "Ġpar",
        "lo"
      ],
      [
        "l",
        "l"
      ],
      [
        "Ġspazza",
        "tura"
      ],
      [
        "z",
        "io"
      ],
      [
        "e",
        "de"
      ],
      [
        "Ġfuo",
        "ri"
      ],
      [
        "Ġmate",
        "ma"
      ],
      [
        "Ġdo",
        "menica"
      ],
      [
        "Ġinte",
        "llig"
      ],
      [
        "m",
        "ar"
      ],
      [
        "Ġini",
        "zia"
      ],
      [
        "ia",
        "to"
      ],
      [
        "Ġri",
        "sa"
      ],
      [
        "Ġchia",
        "ma"
      ],
      [
        "Ġne",
        "ve"
      ],
      [
        "Ġricor",
        "do"
      ],
      [
        "ĠT",
        "rezza"
      ],
      [
        "Ġal",
        "meno"
      ],
      [
        "Ġfre",
        "d"
      ],
      [
        "Ġdic",
        "ono"
      ],
      [
        "ccia",
        "ta"
      ],
      [
        "Ġ",
        "er"
      ],
      [
        "Ġman",
        "do"
      ],
      [
        "'",
        ","
      ],
      [
        "Ġscri",
        "ve"
      ],
      [
        "Ġvo",
        "le"
      ],
      [
        "Ġin",
        "vesti"
      ],
      [
        "Ġtan",
        "to"
      ],
      [
        "en",
        "to"
      ],
      [
        "utto",
        "sto"
      ],
      [
        "Ġa",
        "ci"
      ],
      [
        "Ġme",
        "tte"
      ],
      [
        "b",
        "o"
      ],
      [
        "vo",
        "la"
      ],
      [
        "Ġpro",
        "ssima"
      ],
      [
        "Ġprof",
        "u"
      ],
      [
        "ĠL",
        "o"
      ],
      [
        "ver",
        "no"
      ],
      [
        "Ġpol",
        "pe"
      ],
      [
        "Ġface",
        "va"
      ],
      [
        "ca",
        "to"
      ],
      [
        "ti",
        "vo"
      ],
      [
        "Ġo",
        "re"
      ],
      [
        "lan",
        "z"
      ],
      [
        "Ġpu",
        "Ã²"
      ],
      [
        "Ġdie",
        "tro"
      ],
      [
        "lanz",
        "an"
      ],
      [
        "Ġsar",
        "de"
      ],
      [
        "ĠP",
        "re"
      ],
      [
        "s",
        "tro"
      ],
      [
        "in",
        "f"
      ],
      [
        "Ġfar",
        "mi"
      ],
      [
        "Ġma",
        "gia"
      ],
      [
        "Ġla",
        "v"
      ],
      [
        "Ġsa",
        "bbia"
      ],
      [
        "Ġing",
        "lese"
      ],
      [
        "ff",
        "Ã¨"
      ],
      [
        "Ġs",
        "ve"
      ],
      [
        "Ġsemb",
        "rano"
      ],
      [
        "Ġpa",
        "ra"
      ],
      [
        "a",
        "gata"
      ],
      [
        "Ġca",
        "ffÃ¨"
      ],
      [
        "Ġdel",
        "i"
      ],
      [
        "Ġspecia",
        "lmente"
      ],
      [
        "d",
        "ono"
      ],
      [
        "Ġsemb",
        "ri"
      ],
      [
        "Ġgen",
        "io"
      ],
      [
        "ĠA",
        "llo"
      ],
      [
        "ĠAllo",
        "ra"
      ],
      [
        "Ġs",
        "or"
      ],
      [
        "Ġco",
        "lo"
      ],
      [
        "Ġcapi",
        "to"
      ],
      [
        "lo",
        "so"
      ],
      [
        "ĠP",
        "ia"
      ],
      [
        "Ġbu",
        "sta"
      ],
      [
        "Ġcer",
        "care"
      ],
      [
        "Ġparti",
        "ta"
      ],
      [
        "Ġmatema",
        "tica"
      ],
      [
        "Ġda",
        "te"
      ],
      [
        "u",
        "l"
      ],
      [
        "Ġu",
        "sciamo"
      ],
      [
        "gli",
        "e"
      ],
      [
        "la",
        "to"
      ],
      [
        "Ġman",
        "gi"
      ],
      [
        "Ġp",
        "r"
      ],
      [
        "u",
        "i"
      ],
      [
        "Ġmando",
        "rla"
      ],
      [
        "Ġpreferi",
        "sci"
      ],
      [
        "ĠC",
        "ic"
      ],
      [
        "er",
        "to"
      ],
      [
        "Ġtu",
        "a"
      ],
      [
        "Ġme",
        "lanzan"
      ],
      [
        "ĠPia",
        "zza"
      ],
      [
        "Ġdri",
        "tto"
      ],
      [
        "l",
        "iamo"
      ],
      [
        "Ġle",
        "ttere"
      ],
      [
        "Ġsi",
        "gno"
      ],
      [
        "eri",
        "e"
      ],
      [
        "Ġsto",
        "r"
      ],
      [
        "Ġmi",
        "lle"
      ],
      [
        "Ġva",
        "do"
      ],
      [
        "Ġpolpe",
        "tte"
      ],
      [
        "ĠLa",
        "sciamo"
      ],
      [
        "ĠCo",
        "mp"
      ],
      [
        "Ġad",
        "esso"
      ],
      [
        "ia",
        "le"
      ],
      [
        "Ġquan",
        "te"
      ],
      [
        "al",
        "ba"
      ],
      [
        "Ġdeli",
        "rio"
      ],
      [
        "p",
        "ar"
      ],
      [
        "Ġinseg",
        "no"
      ],
      [
        "c",
        "ano"
      ],
      [
        "Ġballa",
        "re"
      ],
      [
        "Ġpren",
        "der"
      ],
      [
        "Ġto",
        "tale"
      ],
      [
        "Ġc",
        "re"
      ],
      [
        "t",
        "una"
      ],
      [
        "Ġtrov",
        "are"
      ],
      [
        "s",
        "ico"
      ],
      [
        "Ġch",
        "io"
      ],
      [
        "Ġfi",
        "li"
      ],
      [
        "Ġpara",
        "di"
      ],
      [
        "ĠBel",
        "lini"
      ],
      [
        "Ġparadi",
        "so"
      ],
      [
        "Ġta",
        "sse"
      ],
      [
        "Ġcuc",
        "ina"
      ],
      [
        "in",
        "verno"
      ],
      [
        "Ġdal",
        "l"
      ],
      [
        "Ġri",
        "la"
      ],
      [
        "Ġdi",
        "rmi"
      ],
      [
        "Ġinseg",
        "nato"
      ],
      [
        "Ġscal",
        "da"
      ],
      [
        "Ġp",
        "es"
      ],
      [
        "Ġvo",
        "glio"
      ],
      [
        "Ġpens",
        "arci"
      ],
      [
        "al",
        "tro"
      ],
      [
        "Ġbi",
        "so"
      ],
      [
        "Ġtriste",
        "zza"
      ],
      [
        "Ġbra",
        "cio"
      ],
      [
        "Ġcod",
        "ice"
      ],
      [
        "m",
        "pi"
      ],
      [
        "el",
        "le"
      ],
      [
        "ĠD",
        "i"
      ],
      [
        "Ġpe",
        "sc"
      ],
      [
        "Ġb",
        "ru"
      ],
      [
        "Ġimpa",
        "zz"
      ],
      [
        "ĠComp",
        "limenti"
      ],
      [
        "Ġsta",
        "vamo"
      ],
      [
        "b",
        "e"
      ],
      [
        "Ġ",
        "H"
      ],
      [
        "re",
        "sti"
      ],
      [
        "Ġs",
        "ba"
      ],
      [
        "t",
        "r"
      ],
      [
        "ia",
        "n"
      ],
      [
        "Ġg",
        "a"
      ],
      [
        "Ġdiven",
        "ta"
      ],
      [
        "Ġguar",
        "do"
      ],
      [
        "ĠBed",
        "du"
      ],
      [
        "r",
        "ci"
      ],
      [
        "Ġfa",
        "raglioni"
      ],
      [
        "Ġstran",
        "e"
      ],
      [
        "Ġusci",
        "re"
      ],
      [
        "Ġchia",
        "cchi"
      ],
      [
        "Ġfuo",
        "co"
      ],
      [
        "Ġgi",
        "ra"
      ],
      [
        "ĠSi",
        "racusa"
      ],
      [
        "Ġe",
        "le"
      ],
      [
        "ĠSan",
        "t"
      ],
      [
        "an",
        "to"
      ],
      [
        "Ġmo",
        "mento"
      ],
      [
        "gi",
        "one"
      ],
      [
        "Ġpo",
        "sso"
      ],
      [
        "al",
        "tra"
      ],
      [
        "Ġchio",
        "sco"
      ],
      [
        "Ġcap",
        "ita"
      ],
      [
        "Ġer",
        "ano"
      ],
      [
        "Ġbracio",
        "le"
      ],
      [
        "Ġfel",
        "ici"
      ],
      [
        "Ġp",
        "laya"
      ],
      [
        "lo",
        "pi"
      ],
      [
        "Ġlun",
        "go"
      ],
      [
        "Ġle",
        "ggi"
      ],
      [
        "Ġfar",
        "ti"
      ],
      [
        "Ġpro",
        "gra"
      ],
      [
        "ĠO",
        "gnina"
      ],
      [
        "Ġtranqui",
        "llo"
      ],
      [
        "Ġvelo",
        "ce"
      ],
      [
        "Ġu",
        "fficio"
      ],
      [
        "Ġass",
        "ur"
      ],
      [
        "ĠBed",
        "da"
      ],
      [
        "Ġsucc",
        "ede"
      ],
      [
        "ĠV",
        "i"
      ],
      [
        "Ġfor",
        "tuna"
      ],
      [
        "Ġri",
        "de"
      ],
      [
        "ĠC",
        "erta"
      ],
      [
        "ĠCerta",
        "mente"
      ],
      [
        "ĠE",
        "tnea"
      ],
      [
        "Ġquel",
        "l"
      ],
      [
        "man",
        "o"
      ],
      [
        "Ġmen",
        "o"
      ],
      [
        "Ġli",
        "do"
      ],
      [
        "la",
        "re"
      ],
      [
        "h",
        "ia"
      ],
      [
        "Ġfa",
        "tti"
      ],
      [
        "po",
        "mu"
      ],
      [
        "z",
        "o"
      ],
      [
        "Ġman",
        "o"
      ],
      [
        "m",
        "iamo"
      ],
      [
        "Ġspieg",
        "hi"
      ],
      [
        "Ġdiver",
        "ti"
      ],
      [
        "pomu",
        "lini"
      ],
      [
        "Ġma",
        "g"
      ],
      [
        "Ġdol",
        "ci"
      ],
      [
        "Ġdie",
        "ci"
      ],
      [
        "s",
        "f"
      ],
      [
        "sico",
        "logia"
      ],
      [
        "Ġdiffici",
        "le"
      ],
      [
        "Ġfini",
        "sce"
      ],
      [
        "m",
        "ia"
      ],
      [
        "Ġz",
        "ona"
      ],
      [
        "c",
        "ino"
      ],
      [
        "re",
        "bbe"
      ],
      [
        "g",
        "ono"
      ],
      [
        "eg",
        "n"
      ],
      [
        "Ġme",
        "tto"
      ],
      [
        "zzi",
        "llo"
      ],
      [
        "ti",
        "f"
      ],
      [
        "llo",
        "w"
      ],
      [
        "llow",
        "er"
      ],
      [
        "Ġpensi",
        "eri"
      ],
      [
        "ĠC",
        "hiamo"
      ],
      [
        "Ġpe",
        "scheria"
      ],
      [
        "Ġfo",
        "llower"
      ],
      [
        "Ġsar",
        "Ãł"
      ],
      [
        "ar",
        "an"
      ],
      [
        "Ġpic",
        "colo"
      ],
      [
        "opo",
        "litica"
      ],
      [
        "Ġnu",
        "lla"
      ],
      [
        "Ġfi",
        "loso"
      ],
      [
        "u",
        "re"
      ],
      [
        "Ġp",
        "ien"
      ],
      [
        "Ġv",
        "in"
      ],
      [
        "Ġrisa",
        "te"
      ],
      [
        "f",
        "o"
      ],
      [
        "Ġguarda",
        "vo"
      ],
      [
        "A",
        "gata"
      ],
      [
        "Ġro",
        "be"
      ],
      [
        "ĠN",
        "on"
      ],
      [
        "Ġcu",
        "i"
      ],
      [
        "r",
        "sino"
      ],
      [
        "Ġs",
        "erie"
      ],
      [
        "Ġm",
        "ica"
      ],
      [
        "mar",
        "t"
      ],
      [
        "Ġdimentic",
        "hiamo"
      ],
      [
        "Ġacc",
        "en"
      ],
      [
        "Ġvi",
        "sta"
      ],
      [
        "Ġgig",
        "ante"
      ],
      [
        "c",
        "endo"
      ],
      [
        "Ġpo",
        "sti"
      ],
      [
        "eri",
        "tivo"
      ],
      [
        "tic",
        "cio"
      ],
      [
        "Ġbu",
        "oni"
      ],
      [
        "gio",
        "rno"
      ],
      [
        "un",
        "o"
      ],
      [
        "ra",
        "to"
      ],
      [
        "Ġdevo",
        "ti"
      ],
      [
        "Ġnos",
        "tro"
      ],
      [
        "Ġmiglio",
        "ri"
      ],
      [
        "Ġli",
        "di"
      ],
      [
        "Ġdiffici",
        "li"
      ],
      [
        "Ġpro",
        "te"
      ],
      [
        "Ġta",
        "tt"
      ],
      [
        "ticcio",
        "lo"
      ],
      [
        "Ġpor",
        "ticciolo"
      ],
      [
        "s",
        "tra"
      ],
      [
        "Ġve",
        "di"
      ],
      [
        "Ġtro",
        "va"
      ],
      [
        "Ġconsi",
        "gli"
      ],
      [
        "es",
        "s"
      ],
      [
        "ĠR",
        "o"
      ],
      [
        "ĠPre",
        "feri"
      ],
      [
        "Ġfred",
        "do"
      ],
      [
        "aran",
        "cino"
      ],
      [
        "re",
        "i"
      ],
      [
        "Ġpre",
        "par"
      ],
      [
        "gn",
        "ia"
      ],
      [
        "Ġca",
        "tania"
      ],
      [
        "Ġcompa",
        "gnia"
      ],
      [
        "Ġde",
        "ci"
      ],
      [
        "Ġvic",
        "ina"
      ],
      [
        "c",
        "u"
      ],
      [
        "Ġser",
        "vono"
      ],
      [
        "Ġtuff",
        "i"
      ],
      [
        "Ġc",
        "e"
      ],
      [
        "Ġm",
        "ente"
      ],
      [
        "Ġan",
        "no"
      ],
      [
        "ĠBel",
        "lissi"
      ],
      [
        "ĠAci",
        "reale"
      ],
      [
        "ĠPreferi",
        "sco"
      ],
      [
        "d",
        "ar"
      ],
      [
        "pp",
        "ia"
      ],
      [
        "Ġnuo",
        "va"
      ],
      [
        "Ġv",
        "ino"
      ],
      [
        "egn",
        "eria"
      ],
      [
        "g",
        "iamo"
      ],
      [
        "Ġd",
        "or"
      ],
      [
        "Ġal",
        "tri"
      ],
      [
        "Ġstudia",
        "ndo"
      ],
      [
        "Ġmer",
        "cato"
      ],
      [
        "Ġsi",
        "e"
      ],
      [
        "Ġu",
        "s"
      ],
      [
        "r",
        "ra"
      ],
      [
        "Ġbe",
        "re"
      ],
      [
        "Ġsor",
        "ri"
      ],
      [
        "Ġimpazz",
        "ire"
      ],
      [
        "Ġa",
        "mo"
      ],
      [
        "tt",
        "r"
      ],
      [
        "Ġno",
        "tte"
      ],
      [
        "Ġs",
        "mart"
      ],
      [
        "Ġe",
        "sp"
      ],
      [
        "Ġan",
        "che"
      ],
      [
        "Ġp",
        "sicologia"
      ],
      [
        "Ġsembra",
        "va"
      ],
      [
        "Ġlun",
        "ga"
      ],
      [
        "Ġvuo",
        "l"
      ],
      [
        "Ġmi",
        "ei"
      ],
      [
        "r",
        "si"
      ],
      [
        "ĠM",
        "aria"
      ],
      [
        "Ġbiso",
        "gna"
      ],
      [
        "on",
        "ti"
      ],
      [
        "es",
        "te"
      ],
      [
        "Ġmo",
        "tori"
      ],
      [
        "ĠF",
        "acc"
      ],
      [
        "i",
        "d"
      ],
      [
        "ic",
        "iale"
      ],
      [
        "io",
        "logia"
      ],
      [
        "ĠD",
        "io"
      ],
      [
        "Ġfa",
[...]
